unsigned char chatbot_model_quantized_tflite[] = {
  0x20, 0x00, 0x00, 0x00, 0x54, 0x46, 0x4c, 0x33, 0x00, 0x00, 0x00, 0x00,
  0x14, 0x00, 0x20, 0x00, 0x1c, 0x00, 0x18, 0x00, 0x14, 0x00, 0x10, 0x00,
  0x0c, 0x00, 0x00, 0x00, 0x08, 0x00, 0x04, 0x00, 0x14, 0x00, 0x00, 0x00,
  0x1c, 0x00, 0x00, 0x00, 0x98, 0x00, 0x00, 0x00, 0xf0, 0x00, 0x00, 0x00,
  0x04, 0x15, 0x00, 0x00, 0x14, 0x15, 0x00, 0x00, 0x70, 0x23, 0x00, 0x00,
  0x03, 0x00, 0x00, 0x00, 0x01, 0x00, 0x00, 0x00, 0x10, 0x00, 0x00, 0x00,
  0x00, 0x00, 0x0a, 0x00, 0x10, 0x00, 0x0c, 0x00, 0x08, 0x00, 0x04, 0x00,
  0x0a, 0x00, 0x00, 0x00, 0x0c, 0x00, 0x00, 0x00, 0x1c, 0x00, 0x00, 0x00,
  0x3c, 0x00, 0x00, 0x00, 0x0f, 0x00, 0x00, 0x00, 0x73, 0x65, 0x72, 0x76,
  0x69, 0x6e, 0x67, 0x5f, 0x64, 0x65, 0x66, 0x61, 0x75, 0x6c, 0x74, 0x00,
  0x01, 0x00, 0x00, 0x00, 0x04, 0x00, 0x00, 0x00, 0x90, 0xff, 0xff, 0xff,
  0x07, 0x00, 0x00, 0x00, 0x04, 0x00, 0x00, 0x00, 0x08, 0x00, 0x00, 0x00,
  0x6f, 0x75, 0x74, 0x70, 0x75, 0x74, 0x5f, 0x30, 0x00, 0x00, 0x00, 0x00,
  0x01, 0x00, 0x00, 0x00, 0x04, 0x00, 0x00, 0x00, 0xe6, 0xea, 0xff, 0xff,
  0x04, 0x00, 0x00, 0x00, 0x0c, 0x00, 0x00, 0x00, 0x6b, 0x65, 0x72, 0x61,
  0x73, 0x5f, 0x74, 0x65, 0x6e, 0x73, 0x6f, 0x72, 0x00, 0x00, 0x00, 0x00,
  0x02, 0x00, 0x00, 0x00, 0x34, 0x00, 0x00, 0x00, 0x04, 0x00, 0x00, 0x00,
  0xdc, 0xff, 0xff, 0xff, 0x0a, 0x00, 0x00, 0x00, 0x04, 0x00, 0x00, 0x00,
  0x13, 0x00, 0x00, 0x00, 0x43, 0x4f, 0x4e, 0x56, 0x45, 0x52, 0x53, 0x49,
  0x4f, 0x4e, 0x5f, 0x4d, 0x45, 0x54, 0x41, 0x44, 0x41, 0x54, 0x41, 0x00,
  0x08, 0x00, 0x0c, 0x00, 0x08, 0x00, 0x04, 0x00, 0x08, 0x00, 0x00, 0x00,
  0x09, 0x00, 0x00, 0x00, 0x04, 0x00, 0x00, 0x00, 0x13, 0x00, 0x00, 0x00,
  0x6d, 0x69, 0x6e, 0x5f, 0x72, 0x75, 0x6e, 0x74, 0x69, 0x6d, 0x65, 0x5f,
  0x76, 0x65, 0x72, 0x73, 0x69, 0x6f, 0x6e, 0x00, 0x0b, 0x00, 0x00, 0x00,
  0x10, 0x14, 0x00, 0x00, 0x08, 0x14, 0x00, 0x00, 0xd0, 0x13, 0x00, 0x00,
  0xa0, 0x10, 0x00, 0x00, 0xc0, 0x08, 0x00, 0x00, 0xac, 0x00, 0x00, 0x00,
  0xa4, 0x00, 0x00, 0x00, 0x9c, 0x00, 0x00, 0x00, 0x94, 0x00, 0x00, 0x00,
  0x74, 0x00, 0x00, 0x00, 0x04, 0x00, 0x00, 0x00, 0x8e, 0xeb, 0xff, 0xff,
  0x04, 0x00, 0x00, 0x00, 0x60, 0x00, 0x00, 0x00, 0x0c, 0x00, 0x00, 0x00,
  0x08, 0x00, 0x0e, 0x00, 0x08, 0x00, 0x04, 0x00, 0x08, 0x00, 0x00, 0x00,
  0x10, 0x00, 0x00, 0x00, 0x28, 0x00, 0x00, 0x00, 0x00, 0x00, 0x06, 0x00,
  0x08, 0x00, 0x04, 0x00, 0x06, 0x00, 0x00, 0x00, 0x04, 0x00, 0x00, 0x00,
  0x01, 0x00, 0x00, 0x00, 0xea, 0x03, 0x00, 0x00, 0x0c, 0x00, 0x18, 0x00,
  0x14, 0x00, 0x10, 0x00, 0x0c, 0x00, 0x04, 0x00, 0x0c, 0x00, 0x00, 0x00,
  0x81, 0x77, 0x38, 0x62, 0x03, 0x93, 0x31, 0x43, 0x02, 0x00, 0x00, 0x00,
  0x02, 0x00, 0x00, 0x00, 0x04, 0x00, 0x00, 0x00, 0x06, 0x00, 0x00, 0x00,
  0x32, 0x2e, 0x31, 0x37, 0x2e, 0x30, 0x00, 0x00, 0xfa, 0xeb, 0xff, 0xff,
  0x04, 0x00, 0x00, 0x00, 0x10, 0x00, 0x00, 0x00, 0x32, 0x2e, 0x31, 0x37,
  0x2e, 0x30, 0x00, 0x00, 0x00, 0x00, 0x00, 0x00, 0x00, 0x00, 0x00, 0x00,
  0x64, 0xde, 0xff, 0xff, 0x68, 0xde, 0xff, 0xff, 0x6c, 0xde, 0xff, 0xff,
  0x22, 0xec, 0xff, 0xff, 0x04, 0x00, 0x00, 0x00, 0x02, 0x08, 0x00, 0x00,
  0x4e, 0x4d, 0xc2, 0x14, 0x14, 0x37, 0xbe, 0xce, 0x70, 0xd3, 0xa6, 0xb9,
  0xaf, 0xa4, 0xc9, 0x48, 0xda, 0xb7, 0xf1, 0xa3, 0x27, 0xf2, 0x9d, 0x2c,
  0x7b, 0x4b, 0x67, 0x50, 0xec, 0x58, 0x98, 0xfd, 0x5a, 0xf0, 0x29, 0x9d,
  0x03, 0x3e, 0xe5, 0x31, 0x18, 0xe3, 0x36, 0x8e, 0xad, 0x91, 0x5a, 0xfa,
  0xc0, 0x3e, 0x24, 0xf8, 0x55, 0xff, 0x1a, 0xb2, 0x0c, 0x95, 0xbc, 0xd4,
  0x1c, 0xa2, 0x05, 0xe7, 0xb5, 0xf8, 0xd6, 0xe9, 0x66, 0xf5, 0x0a, 0x8a,
  0xc0, 0xbf, 0xa2, 0x30, 0x8f, 0xaa, 0xf7, 0x04, 0x14, 0x23, 0xbc, 0x79,
  0x0e, 0x9e, 0x0d, 0x1c, 0xcb, 0x22, 0x04, 0x8a, 0xb2, 0xa9, 0x68, 0xa6,
  0x6f, 0x07, 0xc6, 0xa2, 0x93, 0xbb, 0xf2, 0x64, 0xbd, 0x04, 0x29, 0x4f,
  0x19, 0x4f, 0xb8, 0x58, 0x47, 0xfb, 0x0c, 0x31, 0xf1, 0x1d, 0xc9, 0x5a,
  0xe7, 0x3a, 0xce, 0x30, 0xd4, 0x25, 0x19, 0x09, 0x1f, 0x6a, 0x8f, 0xa1,
  0x26, 0x17, 0x22, 0xda, 0xb7, 0xa5, 0xfc, 0x9b, 0x1d, 0xba, 0xf6, 0x39,
  0xe6, 0x4c, 0xe0, 0x3f, 0xb5, 0xae, 0x53, 0x05, 0xaf, 0x5f, 0xa4, 0x44,
  0xa4, 0x7f, 0x6f, 0xc5, 0xe4, 0x2a, 0x2d, 0x48, 0x69, 0xf1, 0x12, 0xd1,
  0x54, 0x46, 0x70, 0x99, 0xeb, 0x45, 0x99, 0xb4, 0x38, 0x7c, 0x1b, 0x9a,
  0x28, 0xda, 0xc5, 0xb6, 0x6e, 0x45, 0x22, 0x04, 0xe2, 0x58, 0xaf, 0x19,
  0xd8, 0x49, 0x24, 0xa0, 0x64, 0xc7, 0x90, 0x14, 0x3c, 0x62, 0xba, 0xfc,
  0xa8, 0x31, 0x2c, 0xb2, 0xb5, 0x0f, 0x14, 0x53, 0x2d, 0x3d, 0x1e, 0xc2,
  0x65, 0xd8, 0x44, 0x2e, 0x29, 0xa7, 0x1d, 0x64, 0xb6, 0x1d, 0x7f, 0x98,
  0x6c, 0x99, 0xe7, 0xa0, 0xfe, 0x56, 0x24, 0xfd, 0xea, 0x4b, 0x3d, 0xae,
  0xf3, 0xcf, 0xa3, 0x3e, 0xf2, 0xe3, 0x9a, 0x3c, 0x3f, 0x50, 0x41, 0x08,
  0x4c, 0xde, 0x31, 0x4a, 0x9f, 0xba, 0x05, 0x4f, 0xdb, 0x5f, 0xd6, 0xa2,
  0x52, 0x2e, 0x15, 0xbb, 0x32, 0x62, 0x7a, 0xe2, 0x0b, 0xae, 0x91, 0xec,
  0x50, 0x17, 0xd9, 0x96, 0x52, 0x55, 0x2f, 0x4e, 0xe6, 0xab, 0x0e, 0x52,
  0xcc, 0xd0, 0x18, 0xe7, 0x62, 0xf4, 0xaa, 0x6d, 0x25, 0x1b, 0x1a, 0x74,
  0xca, 0xdb, 0x03, 0xdd, 0x22, 0x57, 0x48, 0x0e, 0x41, 0xde, 0x0d, 0xbd,
  0x1d, 0xde, 0x9b, 0xce, 0x0b, 0xcc, 0x5b, 0x14, 0xe7, 0x46, 0x4f, 0xe6,
  0x9c, 0x3f, 0x00, 0x69, 0x3c, 0x40, 0x1a, 0xc1, 0xd9, 0x00, 0xb3, 0xb1,
  0x28, 0x1d, 0x56, 0x99, 0xa4, 0xa7, 0xf8, 0x97, 0x08, 0x64, 0x55, 0x4d,
  0x00, 0x58, 0xfc, 0xef, 0x1b, 0xf1, 0x67, 0x4a, 0x59, 0xb4, 0x5b, 0x40,
  0xbb, 0x95, 0x5d, 0xfa, 0xff, 0x6a, 0x2c, 0x5f, 0x06, 0xaa, 0x61, 0x5a,
  0x04, 0xc2, 0x31, 0xe4, 0x11, 0x35, 0xbe, 0xf3, 0x59, 0x00, 0x21, 0x04,
  0x46, 0xbb, 0x05, 0xda, 0x15, 0x5d, 0x7e, 0x93, 0xb1, 0xb5, 0x66, 0x5d,
  0x15, 0xe8, 0x1e, 0xc4, 0x47, 0x0f, 0x38, 0x6b, 0x68, 0x37, 0xed, 0x5f,
  0xb0, 0x23, 0x7d, 0x93, 0x4d, 0x18, 0x6d, 0xd0, 0xcf, 0xa7, 0x19, 0x26,
  0x0f, 0x32, 0xab, 0x5f, 0x4b, 0x0a, 0xed, 0xe5, 0x01, 0x90, 0xac, 0x2d,
  0x14, 0xb7, 0xa1, 0x99, 0x53, 0x5d, 0xd2, 0x54, 0xa7, 0x20, 0xed, 0xa8,
  0x40, 0x47, 0xbc, 0x40, 0xfb, 0x5e, 0x10, 0x49, 0xe1, 0x5d, 0x55, 0xab,
  0xd9, 0xfc, 0xcc, 0x3f, 0x46, 0x56, 0xa9, 0x04, 0x56, 0x95, 0x39, 0x91,
  0x0f, 0xdd, 0xb0, 0x38, 0x19, 0xdf, 0xce, 0xc5, 0x18, 0x10, 0x63, 0x05,
  0x4e, 0x91, 0x39, 0x0d, 0x2a, 0xa6, 0x1c, 0xc7, 0x58, 0xff, 0xed, 0x9f,
  0xba, 0x04, 0x0f, 0x09, 0x5f, 0xe5, 0x39, 0x08, 0xcd, 0xb6, 0x9d, 0xe2,
  0xcd, 0x2c, 0x29, 0x0a, 0x10, 0x4a, 0x43, 0x5a, 0xcd, 0x9b, 0xfe, 0xef,
  0xfa, 0xd5, 0x7a, 0xd4, 0x93, 0x4d, 0x13, 0x3a, 0x12, 0xa2, 0xbb, 0x96,
  0x9c, 0x11, 0x95, 0xb0, 0x12, 0x2a, 0xa7, 0xcf, 0x62, 0xa4, 0x56, 0x90,
  0xf8, 0x9c, 0x0a, 0x9a, 0xbb, 0x64, 0xd0, 0xec, 0xa4, 0x45, 0x01, 0xfa,
  0x40, 0x5a, 0x50, 0x28, 0x5b, 0x49, 0x33, 0x68, 0xda, 0x6a, 0xf9, 0xe6,
  0x34, 0x43, 0xa6, 0x0a, 0x37, 0x4e, 0xae, 0xcf, 0xb9, 0x22, 0x5d, 0xf0,
  0x9b, 0x02, 0x7c, 0x5c, 0xe6, 0xa3, 0x0d, 0xfc, 0xa4, 0x56, 0xc2, 0xd1,
  0x28, 0x7a, 0xab, 0x23, 0x33, 0xec, 0xa5, 0xde, 0x98, 0xcc, 0x4e, 0x66,
  0xdf, 0x58, 0x1a, 0x9f, 0xc0, 0x17, 0x21, 0x7f, 0xed, 0xbb, 0xad, 0x1e,
  0xb3, 0x0a, 0xac, 0x04, 0x17, 0x15, 0x6d, 0xaa, 0xcc, 0x98, 0xc1, 0x5e,
  0xa3, 0x18, 0xb9, 0x91, 0xc5, 0xc1, 0x4f, 0xc0, 0xa8, 0x17, 0xa0, 0x13,
  0x94, 0x47, 0xbd, 0x43, 0xce, 0x0c, 0xb6, 0x3b, 0xfc, 0xfa, 0x9d, 0xb1,
  0xec, 0x5f, 0x3d, 0xaa, 0xef, 0x52, 0x38, 0x23, 0x9d, 0xb9, 0xc8, 0x45,
  0x10, 0x5c, 0x48, 0xbe, 0x2c, 0xa2, 0x5f, 0x0b, 0x11, 0x42, 0xe9, 0x4c,
  0x59, 0x59, 0x72, 0xc1, 0x9d, 0x2a, 0xe7, 0xaa, 0x05, 0x00, 0xd5, 0x34,
  0xb0, 0x94, 0xcd, 0x9e, 0x07, 0xfe, 0x1d, 0xd1, 0x3c, 0x55, 0xe0, 0x1a,
  0xf7, 0xb1, 0x9c, 0xc1, 0xa2, 0x79, 0x3b, 0x14, 0x19, 0xe5, 0xba, 0x57,
  0xb7, 0xbf, 0x26, 0x92, 0x05, 0x7f, 0x08, 0xc1, 0x52, 0xb2, 0x62, 0xc2,
  0xc1, 0x72, 0xea, 0x25, 0xce, 0x72, 0x78, 0x4b, 0x1c, 0xb0, 0x97, 0x31,
  0xe9, 0x1b, 0xd4, 0x0f, 0xb2, 0x92, 0x69, 0x61, 0xbe, 0xc2, 0x58, 0x07,
  0x45, 0x59, 0x48, 0x5b, 0x5a, 0x53, 0xd4, 0xa6, 0xb8, 0xfa, 0x7a, 0xbd,
  0x38, 0x6c, 0x07, 0x16, 0x61, 0x4f, 0x52, 0x94, 0x6b, 0x9a, 0x15, 0xb4,
  0xe7, 0x22, 0x19, 0x32, 0xcf, 0xcd, 0xa9, 0xc6, 0x41, 0xbd, 0x36, 0x9f,
  0xb4, 0xc8, 0xef, 0x2f, 0x2e, 0x70, 0xb5, 0xc9, 0x3a, 0x56, 0xc9, 0x0b,
  0x61, 0xb9, 0xe8, 0x6d, 0x2f, 0xbd, 0x95, 0xca, 0xb1, 0x90, 0x1e, 0xc3,
  0x4e, 0x5d, 0xca, 0x55, 0xe2, 0x9b, 0xee, 0xc1, 0x2e, 0x07, 0x77, 0x41,
  0xd9, 0x47, 0xbc, 0x15, 0xdc, 0x7b, 0x78, 0x41, 0xc4, 0x6d, 0xc9, 0xf0,
  0xb4, 0xca, 0xf8, 0xd5, 0xb7, 0x0e, 0x64, 0xba, 0xe1, 0xd5, 0x0c, 0x6a,
  0xe6, 0xda, 0x6d, 0xde, 0x95, 0x3e, 0xb2, 0xe7, 0xf5, 0x2a, 0x1a, 0x3c,
  0xef, 0xe5, 0xe8, 0xf3, 0xf0, 0x6e, 0x7f, 0xf8, 0x0d, 0xaf, 0x00, 0x22,
  0x5a, 0xb8, 0x6c, 0x0c, 0x95, 0x30, 0x33, 0xf4, 0xd0, 0x6f, 0xb8, 0xe6,
  0x7d, 0xe6, 0x27, 0x22, 0xf5, 0xa9, 0x45, 0xf8, 0xfd, 0x74, 0x3e, 0x24,
  0x1a, 0x3a, 0xe0, 0x94, 0xd0, 0xf5, 0x6b, 0x2f, 0xbc, 0xd0, 0x69, 0xa7,
  0xd5, 0xdf, 0x21, 0x75, 0x9d, 0x96, 0x14, 0x44, 0x3c, 0x00, 0xa5, 0x14,
  0xa9, 0x6a, 0x9d, 0xb1, 0x2d, 0xff, 0xf5, 0x16, 0x9c, 0x4e, 0x68, 0x13,
  0x1c, 0xb7, 0x90, 0xce, 0x45, 0xc5, 0x0e, 0xad, 0x96, 0x1b, 0x93, 0x5b,
  0x44, 0xd9, 0xea, 0x6a, 0xfd, 0xbb, 0xa3, 0x1f, 0xee, 0x6f, 0xd9, 0x23,
  0xc0, 0x42, 0x96, 0x13, 0xc9, 0x5d, 0x01, 0xaf, 0xd5, 0x30, 0xfc, 0xeb,
  0xcb, 0xd1, 0x4c, 0xc8, 0xeb, 0x17, 0xc6, 0xbf, 0x1a, 0x34, 0x20, 0xa5,
  0x5f, 0x3a, 0x43, 0xa2, 0x71, 0x79, 0xbd, 0x91, 0x34, 0x9b, 0x3c, 0xe4,
  0x0b, 0xfb, 0x17, 0x3c, 0x93, 0x2c, 0xb8, 0x23, 0x7f, 0x52, 0x32, 0xa7,
  0xc0, 0x66, 0xba, 0x4e, 0xa2, 0xca, 0x2b, 0x5c, 0xc2, 0x55, 0x52, 0xa5,
  0x1d, 0xad, 0x76, 0x58, 0x9b, 0x37, 0x44, 0xf2, 0x21, 0xa7, 0xe5, 0x37,
  0xd5, 0x22, 0xba, 0x37, 0xca, 0x34, 0x04, 0x05, 0xcd, 0x15, 0xee, 0xae,
  0x52, 0xfe, 0x40, 0xec, 0x3d, 0x27, 0xb8, 0x65, 0x5f, 0x65, 0x98, 0x2b,
  0x2a, 0x93, 0x16, 0x90, 0x09, 0xd9, 0xfc, 0xd3, 0xa1, 0xb6, 0xca, 0xde,
  0x4c, 0x73, 0xa4, 0xac, 0x21, 0x57, 0xbc, 0x09, 0x9e, 0x11, 0x43, 0x9d,
  0xc8, 0xcc, 0xd1, 0x5a, 0xce, 0xd5, 0xc0, 0x13, 0x31, 0x5e, 0x36, 0x96,
  0xba, 0xdf, 0xff, 0xea, 0x02, 0x30, 0x51, 0x3c, 0xa8, 0x55, 0x0b, 0xc9,
  0x3b, 0xdd, 0x49, 0x62, 0x7c, 0x61, 0x77, 0xf8, 0x1e, 0xb9, 0xc3, 0x34,
  0x94, 0xc7, 0xae, 0xc5, 0x52, 0xc1, 0x4e, 0x55, 0x5b, 0x74, 0x7f, 0xba,
  0xc1, 0x7f, 0xfa, 0x09, 0x37, 0x99, 0x5c, 0x79, 0x00, 0xee, 0x3a, 0x67,
  0x68, 0x76, 0xc1, 0x64, 0xc6, 0xdf, 0x4e, 0x23, 0xf7, 0xb7, 0xbe, 0xdb,
  0xb7, 0xf0, 0x7a, 0xe4, 0xf9, 0x53, 0xc1, 0xdc, 0xb7, 0xfd, 0x5f, 0x43,
  0x1f, 0x26, 0x28, 0xcc, 0xac, 0x5e, 0x3b, 0x03, 0x22, 0x3f, 0x03, 0xb5,
  0x74, 0xf3, 0x2e, 0xa2, 0x73, 0x60, 0x27, 0x9c, 0x30, 0xcb, 0xae, 0xb0,
  0xf0, 0xb6, 0xa9, 0xd2, 0xc7, 0x10, 0xc7, 0x8f, 0x94, 0xa2, 0x5a, 0x10,
  0xba, 0xec, 0x37, 0xdd, 0x37, 0x61, 0xa5, 0x4c, 0x39, 0x24, 0x1e, 0x08,
  0x2b, 0xf5, 0xd8, 0x55, 0x47, 0xd2, 0x36, 0x32, 0xae, 0x62, 0x13, 0xa6,
  0x48, 0x01, 0x63, 0xc5, 0x98, 0x02, 0xb4, 0x4c, 0x0e, 0x36, 0xf4, 0xa7,
  0xb5, 0x0f, 0x2d, 0x6d, 0x45, 0xf9, 0xc8, 0xaf, 0xa4, 0x64, 0xdd, 0x9a,
  0xbf, 0x2c, 0x34, 0x27, 0x7e, 0xe2, 0xd1, 0x71, 0x6d, 0xb4, 0xc1, 0x27,
  0x4b, 0xbc, 0xf4, 0x38, 0x02, 0xbf, 0x32, 0x43, 0x46, 0x0d, 0xe0, 0xb4,
  0x96, 0x62, 0x34, 0x0d, 0xbb, 0x3c, 0xf1, 0xac, 0xbe, 0x94, 0xeb, 0x94,
  0x37, 0x6e, 0x05, 0x0e, 0xc9, 0xc5, 0x3d, 0x7f, 0x42, 0x9f, 0xab, 0x9b,
  0x52, 0xac, 0x69, 0xc6, 0x63, 0x09, 0xfe, 0xa0, 0x06, 0x5e, 0x1a, 0xe0,
  0x4b, 0x71, 0xbf, 0x1c, 0x72, 0xb9, 0x16, 0x5d, 0x77, 0xfb, 0x6b, 0x99,
  0x15, 0xcb, 0x21, 0xea, 0x26, 0x1e, 0xfc, 0xe9, 0xb3, 0xe4, 0x63, 0x52,
  0x0f, 0x3d, 0x03, 0xa7, 0x06, 0x17, 0x0d, 0xed, 0x8f, 0x8f, 0x41, 0x22,
  0x2a, 0x94, 0xc8, 0xcf, 0x1f, 0xee, 0xea, 0x36, 0x1e, 0xa0, 0xa1, 0x2e,
  0x0e, 0x10, 0xbe, 0xb0, 0xb9, 0x2c, 0x10, 0xc5, 0xf4, 0x29, 0x91, 0xe5,
  0x9d, 0x99, 0x15, 0xfa, 0xda, 0x13, 0xe0, 0x48, 0x22, 0x5f, 0xac, 0xb5,
  0x60, 0x16, 0xc9, 0xb7, 0xaa, 0x8f, 0x04, 0xfc, 0xc0, 0x04, 0x21, 0xb3,
  0xe3, 0x9d, 0x58, 0xa1, 0x4d, 0xf3, 0xca, 0x19, 0x9f, 0xc7, 0x10, 0x3f,
  0xef, 0x36, 0x28, 0x2b, 0x3d, 0x3c, 0xef, 0x01, 0x32, 0x37, 0x5d, 0x36,
  0xa4, 0x94, 0xf3, 0xe0, 0xdc, 0xdf, 0x92, 0x56, 0xa5, 0x6c, 0x50, 0x22,
  0xed, 0xd7, 0xcf, 0x3e, 0xf3, 0x50, 0xf3, 0x5d, 0xa5, 0xdb, 0x73, 0xfb,
  0xb9, 0x21, 0x5c, 0x55, 0x3a, 0xcc, 0x54, 0x54, 0x4a, 0xeb, 0xc1, 0xd1,
  0x24, 0x3a, 0x93, 0x07, 0xde, 0x3e, 0xb2, 0x0e, 0xc8, 0xe0, 0x03, 0x7b,
  0xde, 0x94, 0xb1, 0x5c, 0xc6, 0x12, 0xde, 0xc7, 0xa5, 0x35, 0xa6, 0x08,
  0x36, 0xad, 0xc8, 0x57, 0x6e, 0x33, 0xce, 0x02, 0xd2, 0x9a, 0xc6, 0xb1,
  0x09, 0xa1, 0xdc, 0xb8, 0xb1, 0xdb, 0xff, 0xb7, 0x2d, 0x23, 0xd2, 0x49,
  0x20, 0x5a, 0x1d, 0xf6, 0xee, 0x56, 0x9a, 0x69, 0x21, 0xcf, 0xd5, 0x7f,
  0x42, 0x92, 0x25, 0x32, 0x54, 0x96, 0xea, 0x7d, 0x4d, 0xe3, 0x50, 0x0a,
  0x58, 0x9f, 0x59, 0xc5, 0x96, 0xd8, 0x17, 0xbd, 0xf0, 0xa9, 0x9a, 0x0a,
  0x71, 0x04, 0x30, 0xea, 0x03, 0x05, 0x27, 0xff, 0xfd, 0x68, 0x0b, 0x32,
  0x1a, 0xb9, 0xd2, 0xbc, 0xf1, 0x3b, 0x1b, 0x0b, 0xa8, 0x93, 0x97, 0x4d,
  0xb6, 0x3f, 0xce, 0x23, 0xaf, 0x6a, 0xf4, 0xb9, 0xfb, 0x99, 0x2a, 0x02,
  0x9d, 0x2e, 0xda, 0xe8, 0xdd, 0x40, 0xf9, 0xfd, 0xa2, 0x06, 0x59, 0x57,
  0x10, 0x26, 0x1b, 0x18, 0xbe, 0x54, 0xa1, 0x15, 0xd6, 0xeb, 0x44, 0xdf,
  0xa5, 0xa1, 0x36, 0xdf, 0x56, 0x53, 0xd3, 0x1c, 0xcb, 0x92, 0x94, 0x34,
  0xbf, 0x99, 0x53, 0x7b, 0xb5, 0x2c, 0xbc, 0x60, 0xec, 0xfd, 0x37, 0x77,
  0x39, 0x66, 0x9f, 0x92, 0x19, 0xdc, 0x75, 0xb5, 0x38, 0xbd, 0xae, 0xc1,
  0x21, 0xc8, 0x33, 0x0a, 0x04, 0x4a, 0x65, 0x0d, 0x6d, 0x59, 0xe8, 0x00,
  0xed, 0xbd, 0x4f, 0xe1, 0x9a, 0x31, 0xed, 0x99, 0x62, 0xcc, 0xf8, 0x0a,
  0xf8, 0x4e, 0xcd, 0xf7, 0xca, 0x02, 0xfd, 0xa1, 0xb5, 0x4b, 0x56, 0x25,
  0x55, 0xa8, 0x7f, 0xea, 0xa4, 0xdc, 0x48, 0x32, 0xbc, 0xcb, 0x08, 0xa8,
  0x7d, 0xed, 0x95, 0xa0, 0xae, 0xef, 0x4f, 0x93, 0x67, 0x31, 0x9c, 0xc4,
  0x0f, 0x0a, 0xf3, 0x1d, 0xdd, 0x14, 0xed, 0x16, 0x31, 0x92, 0x5b, 0xc2,
  0x9c, 0xef, 0xcc, 0x96, 0x7a, 0x10, 0xbf, 0x77, 0xf1, 0xda, 0x07, 0xcf,
  0x3e, 0xc9, 0x2a, 0x3f, 0xcd, 0x30, 0xbf, 0xf4, 0x3a, 0x0f, 0x37, 0x09,
  0x45, 0x5c, 0x05, 0x26, 0xc2, 0x5c, 0x5e, 0x46, 0x42, 0x2b, 0xe0, 0x09,
  0xa9, 0xd1, 0x25, 0x98, 0xee, 0x52, 0xca, 0xf5, 0x67, 0xdc, 0xe7, 0xba,
  0x61, 0xd9, 0xcd, 0xa4, 0x9c, 0xa4, 0xdb, 0xae, 0x1f, 0x61, 0xfe, 0x2e,
  0x29, 0x9e, 0xb8, 0x53, 0xe5, 0xe1, 0x79, 0xda, 0xcb, 0x21, 0x3d, 0x9b,
  0x54, 0xb3, 0xb6, 0x17, 0x4c, 0x96, 0xf0, 0xd4, 0xb6, 0x9b, 0xf1, 0xa7,
  0x9f, 0xa3, 0xac, 0x54, 0xd8, 0x97, 0x13, 0x06, 0x56, 0xf1, 0x44, 0x16,
  0xea, 0xba, 0x3a, 0x09, 0x36, 0xf7, 0xa1, 0xa9, 0x61, 0x58, 0xdb, 0x4a,
  0x6c, 0xcd, 0xde, 0xf1, 0x11, 0xbc, 0xd2, 0xb2, 0x1b, 0x61, 0x51, 0xcc,
  0x56, 0x01, 0x6c, 0xe4, 0xcd, 0x33, 0x58, 0xeb, 0xd7, 0xda, 0xdf, 0x95,
  0x08, 0xb2, 0x59, 0x48, 0x6f, 0x23, 0xbc, 0x92, 0x32, 0xa9, 0x6c, 0x06,
  0xee, 0x3d, 0x04, 0x6c, 0xc4, 0xbf, 0x24, 0x43, 0xdb, 0x5c, 0x70, 0x77,
  0xb8, 0x54, 0xc2, 0xd2, 0x5d, 0x09, 0xbd, 0x7f, 0xd4, 0x45, 0xbb, 0x0d,
  0x9a, 0x2b, 0x0a, 0x93, 0xf6, 0x9f, 0x5c, 0x92, 0x9b, 0x60, 0x07, 0xe2,
  0x43, 0x27, 0xf7, 0x04, 0x57, 0x98, 0xb8, 0xce, 0x98, 0x55, 0xaa, 0x2a,
  0x56, 0xcc, 0x98, 0x58, 0x3f, 0xbd, 0xcd, 0xc1, 0x31, 0x50, 0xab, 0x4e,
  0xc6, 0x18, 0xc4, 0xad, 0x22, 0x04, 0x27, 0xd1, 0x34, 0xe5, 0x9e, 0xf4,
  0x3b, 0xb2, 0x10, 0x3b, 0x1c, 0x28, 0xe6, 0x51, 0x43, 0x3b, 0x3b, 0x3b,
  0x9b, 0x2f, 0xc9, 0xa8, 0xf4, 0xb9, 0xd6, 0xc3, 0xd0, 0x30, 0xec, 0x00,
  0xf0, 0x59, 0x40, 0x29, 0xb2, 0xcf, 0x0f, 0x96, 0x1f, 0x22, 0x50, 0xf2,
  0x0e, 0x76, 0x26, 0xb5, 0xfd, 0x48, 0x77, 0xfd, 0xef, 0xd8, 0xc8, 0x20,
  0x27, 0xf8, 0xd2, 0xf1, 0xb8, 0xb0, 0xce, 0xf0, 0x94, 0xf7, 0xb8, 0x06,
  0xb9, 0x04, 0x2d, 0xed, 0x3d, 0x0b, 0xa5, 0xbb, 0x05, 0x27, 0xcf, 0x99,
  0x60, 0xce, 0x4f, 0x3f, 0x4b, 0x55, 0x6c, 0xb0, 0x66, 0x2b, 0xc3, 0xba,
  0x46, 0xd4, 0xc9, 0xb8, 0xce, 0xa3, 0x3e, 0x1a, 0x94, 0x2e, 0xef, 0x2c,
  0xed, 0x09, 0xbc, 0x0c, 0xc3, 0x71, 0x93, 0xf3, 0x4a, 0x9d, 0x5b, 0x4c,
  0x4e, 0x4b, 0xbd, 0x12, 0xb9, 0xdc, 0x26, 0xf0, 0x2c, 0x9b, 0xf3, 0x91,
  0x9c, 0xae, 0xf3, 0x06, 0x4d, 0xdf, 0x2a, 0xaa, 0x15, 0xd8, 0xfe, 0xd5,
  0xce, 0x9e, 0x73, 0xd2, 0x0a, 0x55, 0x41, 0x93, 0x35, 0x31, 0x00, 0x00,
  0x32, 0xf4, 0xff, 0xff, 0x04, 0x00, 0x00, 0x00, 0xd0, 0x07, 0x00, 0x00,
  0x73, 0xb6, 0x1a, 0xc6, 0x7f, 0xdd, 0xda, 0x0c, 0x91, 0x79, 0x29, 0x05,
  0x25, 0x5e, 0xd5, 0x81, 0x8b, 0x24, 0x38, 0x8c, 0x3b, 0xaf, 0xe5, 0xa3,
  0x3a, 0x1b, 0x01, 0x1e, 0x81, 0xea, 0xed, 0x0d, 0xe9, 0x81, 0x36, 0xd0,
  0x42, 0x4a, 0xad, 0x19, 0x81, 0xc6, 0x9a, 0x0d, 0xb5, 0x2e, 0x5d, 0xf2,
  0xe6, 0x55, 0xf7, 0x81, 0x31, 0x01, 0x24, 0xa0, 0xd3, 0xd2, 0xad, 0x14,
  0x36, 0xc4, 0x88, 0x26, 0x97, 0x81, 0xf8, 0xc5, 0x9d, 0x3d, 0xc1, 0x81,
  0x6d, 0xdf, 0xb8, 0xeb, 0x62, 0xcd, 0xce, 0x08, 0xe3, 0xc4, 0x18, 0xd3,
  0x12, 0xfe, 0x5a, 0x81, 0xa8, 0xef, 0x3d, 0x51, 0xd8, 0x81, 0x9c, 0x34,
  0x4e, 0xc9, 0xbd, 0xea, 0x81, 0x38, 0xdd, 0xe2, 0x06, 0x6b, 0x9e, 0xc6,
  0x1c, 0x40, 0x4a, 0x6a, 0x6a, 0x7f, 0x25, 0xa3, 0x09, 0xfc, 0x00, 0x53,
  0xbe, 0x6e, 0x1b, 0x3e, 0x7f, 0x34, 0x46, 0xa3, 0x51, 0x17, 0xad, 0x73,
  0x8c, 0xf6, 0x81, 0x30, 0xb7, 0xcd, 0x0c, 0xc8, 0x21, 0xe3, 0xa1, 0xb0,
  0x6e, 0x67, 0xf7, 0x32, 0xff, 0x81, 0x37, 0xac, 0x2c, 0x92, 0x00, 0x68,
  0x15, 0x24, 0x0d, 0x7f, 0x8d, 0xef, 0x25, 0x21, 0xd8, 0x85, 0xbd, 0x89,
  0x81, 0x05, 0x70, 0x2c, 0xa2, 0xc7, 0x12, 0x1b, 0xc9, 0x33, 0x81, 0xfb,
  0xb1, 0xc9, 0xd6, 0xbc, 0x5a, 0x81, 0xfb, 0x28, 0xdb, 0x49, 0xef, 0x11,
  0x81, 0x00, 0xd6, 0x1f, 0x1f, 0xfb, 0x9b, 0xe4, 0xb0, 0x59, 0x1d, 0xce,
  0x81, 0x89, 0x68, 0x3d, 0xdf, 0x53, 0x86, 0x57, 0x90, 0x2d, 0x57, 0x87,
  0x97, 0x50, 0x6e, 0x81, 0x68, 0xba, 0x2e, 0x2e, 0x81, 0xac, 0xba, 0xd2,
  0xae, 0xe0, 0x50, 0x36, 0xe6, 0x25, 0x81, 0xb3, 0xc2, 0xf4, 0xf4, 0xae,
  0x81, 0xdf, 0x8e, 0x40, 0x8c, 0xba, 0xa1, 0x1b, 0x0f, 0x72, 0x56, 0x12,
  0xbc, 0x9f, 0xbc, 0x7f, 0x79, 0x35, 0xd7, 0xed, 0x31, 0xbd, 0xea, 0x84,
  0xf1, 0x67, 0xfb, 0x81, 0x63, 0xdd, 0x83, 0x81, 0xf2, 0x00, 0x3a, 0x43,
  0x1d, 0xe9, 0x42, 0xc4, 0x13, 0x0a, 0xa7, 0xab, 0x36, 0xd2, 0x83, 0x0d,
  0x32, 0x81, 0x01, 0x8d, 0xa5, 0x06, 0x94, 0x06, 0x81, 0x0a, 0xe1, 0xc4,
  0x8a, 0xe8, 0x4a, 0xf8, 0x21, 0x81, 0x43, 0x28, 0xaf, 0x18, 0xe6, 0x33,
  0xfd, 0xa5, 0x43, 0xb7, 0x8d, 0x81, 0xca, 0x62, 0x81, 0x8a, 0xee, 0x38,
  0x86, 0x30, 0xe8, 0x3d, 0x0e, 0x12, 0x34, 0x0f, 0x19, 0xac, 0x8d, 0xb4,
  0x64, 0x81, 0x53, 0x59, 0x10, 0xa7, 0xc6, 0x14, 0x81, 0x90, 0xf3, 0x12,
  0x54, 0xe6, 0x0a, 0xf3, 0x8a, 0xdf, 0x29, 0x81, 0xcb, 0x99, 0x66, 0x47,
  0xc2, 0x41, 0x25, 0xde, 0x43, 0x83, 0x81, 0x17, 0xcb, 0x87, 0x07, 0x72,
  0x81, 0x05, 0x13, 0xb6, 0x46, 0xc2, 0xf4, 0xc2, 0x67, 0x82, 0xd3, 0xff,
  0x42, 0x5d, 0x81, 0xa9, 0xf5, 0x35, 0x32, 0xb5, 0x81, 0x3e, 0x8a, 0xca,
  0xef, 0xc4, 0xe5, 0x5e, 0x66, 0x6d, 0x81, 0xa9, 0x18, 0xce, 0x85, 0xdc,
  0x65, 0x25, 0xba, 0xa7, 0xd3, 0xe4, 0xac, 0x81, 0x5d, 0x3f, 0x42, 0x53,
  0x81, 0xcb, 0x85, 0x7d, 0xb8, 0xeb, 0x20, 0x2b, 0x1e, 0xbf, 0xe8, 0x36,
  0x11, 0xf4, 0x25, 0xe9, 0xbe, 0x98, 0xeb, 0x81, 0xce, 0x38, 0x21, 0x11,
  0xc7, 0xe8, 0x4b, 0x39, 0x81, 0x00, 0x95, 0x01, 0x5e, 0xf5, 0x81, 0x20,
  0x5a, 0xbb, 0x08, 0x23, 0x91, 0x44, 0x81, 0x83, 0x1a, 0x4a, 0x53, 0xd0,
  0xb6, 0xd4, 0x93, 0x6f, 0x79, 0x3f, 0x69, 0x1b, 0x27, 0x7f, 0xf6, 0x15,
  0x81, 0x02, 0x83, 0xc7, 0x1a, 0xca, 0x13, 0x0e, 0xad, 0xf4, 0x55, 0xc0,
  0x7f, 0xb2, 0x33, 0x46, 0x58, 0xa3, 0x57, 0x9e, 0x81, 0x48, 0xf8, 0xc8,
  0x99, 0xeb, 0x48, 0xfc, 0x40, 0x95, 0x90, 0x67, 0x35, 0xf8, 0x79, 0xc9,
  0x3b, 0x5e, 0x7f, 0xe3, 0x50, 0x81, 0x47, 0x95, 0x49, 0xe4, 0x97, 0xc7,
  0x7b, 0x3a, 0xff, 0x81, 0xcd, 0x64, 0x27, 0x94, 0xd8, 0x53, 0xc5, 0x03,
  0x4f, 0xd9, 0x44, 0x7f, 0xdb, 0xd8, 0x09, 0x1c, 0x3d, 0xa4, 0x4f, 0x81,
  0xe2, 0x69, 0xba, 0x5e, 0x85, 0xb8, 0x9c, 0x3f, 0x4e, 0x4e, 0x81, 0x9a,
  0xd8, 0x13, 0x7b, 0x40, 0x87, 0xd5, 0x0e, 0x3e, 0x2d, 0x6a, 0xf7, 0x1f,
  0xc1, 0xb9, 0xd2, 0x81, 0x99, 0x81, 0x88, 0x57, 0x8c, 0x1c, 0xc6, 0x69,
  0xde, 0x27, 0xc4, 0x26, 0xbd, 0x9b, 0x81, 0xac, 0xdd, 0x14, 0xc4, 0x24,
  0x45, 0xf5, 0xdd, 0x17, 0xe1, 0xe1, 0xfd, 0x4c, 0x81, 0x0d, 0x48, 0xb0,
  0xbf, 0xe8, 0xbf, 0xbc, 0x9d, 0x81, 0x6d, 0x91, 0x64, 0x74, 0x63, 0xcd,
  0xfb, 0x2e, 0x8e, 0x0c, 0x81, 0x45, 0x1e, 0x98, 0x03, 0x81, 0xa9, 0x4c,
  0x1a, 0x37, 0xfd, 0xde, 0x81, 0x9e, 0x96, 0xaa, 0x82, 0x10, 0xf4, 0xef,
  0x30, 0x63, 0x8e, 0x81, 0x5e, 0x56, 0x04, 0xad, 0x0b, 0x20, 0xcd, 0x05,
  0x81, 0x52, 0xc0, 0xb3, 0x0e, 0x4c, 0x5b, 0x27, 0xb3, 0xd4, 0x43, 0xb3,
  0xe4, 0x08, 0x81, 0xfe, 0x5e, 0xf6, 0xf8, 0xea, 0x1d, 0x24, 0x9e, 0x18,
  0xe8, 0x7f, 0x37, 0x95, 0x10, 0x28, 0x64, 0x1b, 0xf4, 0x7f, 0x41, 0xd2,
  0x49, 0xc8, 0xd0, 0x77, 0xae, 0x81, 0x1a, 0xb0, 0xdc, 0x57, 0x38, 0x3e,
  0x89, 0x3b, 0x91, 0xe5, 0x02, 0xe2, 0x85, 0xc2, 0x57, 0x81, 0xa0, 0xda,
  0x36, 0xd4, 0xf3, 0xaf, 0x81, 0x51, 0x0c, 0xd1, 0xc0, 0x62, 0x89, 0xb9,
  0xee, 0x1a, 0xef, 0x94, 0x36, 0xd4, 0x81, 0xc3, 0xd1, 0x9b, 0x0a, 0x34,
  0x81, 0x8d, 0xe6, 0x94, 0x67, 0xa9, 0x3e, 0xd3, 0xe3, 0x39, 0xe2, 0x8c,
  0x8f, 0x63, 0x0e, 0x81, 0xfe, 0x81, 0x44, 0x3e, 0x09, 0xf7, 0x22, 0xaf,
  0xf4, 0x1b, 0x0c, 0x85, 0x4b, 0x7f, 0xe8, 0xf7, 0xd9, 0x2f, 0xe0, 0x5e,
  0x8f, 0xa6, 0x34, 0xa8, 0xc6, 0x84, 0xf8, 0x81, 0x4b, 0x65, 0x3d, 0xdd,
  0xa9, 0xad, 0x81, 0xdb, 0x74, 0x26, 0x1a, 0x16, 0x99, 0xf7, 0x98, 0x7f,
  0x05, 0x71, 0x4d, 0x36, 0x84, 0xe6, 0x43, 0x49, 0x66, 0xee, 0x0d, 0x2c,
  0x06, 0x81, 0xcf, 0xac, 0x66, 0x3d, 0x59, 0x1c, 0xaf, 0xae, 0x81, 0xed,
  0xda, 0xb6, 0xcf, 0x16, 0xbc, 0xb0, 0x7a, 0x4f, 0x14, 0xa4, 0x7f, 0x38,
  0xeb, 0x42, 0x81, 0xaa, 0xd2, 0xd4, 0x88, 0xc5, 0x95, 0xa0, 0x48, 0x5e,
  0x81, 0xbf, 0xe7, 0x6e, 0x1e, 0x0a, 0xee, 0x3b, 0xf0, 0xd9, 0x81, 0xc7,
  0x46, 0x8e, 0x44, 0xda, 0xad, 0xda, 0xab, 0x88, 0x93, 0x4a, 0x30, 0x6c,
  0x12, 0x74, 0x81, 0x98, 0x81, 0x1b, 0xa6, 0x6f, 0x3e, 0x54, 0x98, 0x84,
  0x07, 0xb0, 0xde, 0xec, 0x1d, 0xa5, 0xb7, 0x16, 0xc4, 0x45, 0x81, 0x1f,
  0x21, 0x2b, 0x31, 0xbd, 0xee, 0x11, 0x81, 0xef, 0xef, 0xe4, 0x1e, 0xfe,
  0xac, 0x10, 0x3d, 0x31, 0x22, 0x0f, 0x81, 0x99, 0x0d, 0x5a, 0x02, 0x76,
  0xda, 0x81, 0x67, 0xb3, 0xe3, 0xd0, 0xbf, 0xce, 0xee, 0xdc, 0x16, 0xb4,
  0xe6, 0xfc, 0x3e, 0x81, 0xff, 0x75, 0xd4, 0xf2, 0xac, 0x7f, 0x90, 0xd2,
  0xb1, 0x24, 0x91, 0x7f, 0xcf, 0x46, 0x03, 0x9c, 0xf9, 0xec, 0xd6, 0xc8,
  0x1d, 0x3f, 0x10, 0x54, 0x98, 0xf3, 0x81, 0x46, 0x67, 0x15, 0x37, 0x53,
  0x27, 0x41, 0x8d, 0x4b, 0x4a, 0xa0, 0x81, 0xbb, 0x4f, 0xd8, 0x81, 0xbe,
  0xc3, 0x7d, 0x97, 0x50, 0xb5, 0x63, 0x62, 0x45, 0xb1, 0x69, 0x5c, 0x7f,
  0x38, 0x53, 0xf7, 0x0d, 0xfd, 0xa7, 0x29, 0xb1, 0x81, 0xce, 0xe5, 0x19,
  0xaa, 0x01, 0xb2, 0xcf, 0xd1, 0x37, 0x2b, 0x9e, 0x9f, 0x00, 0xc0, 0x81,
  0x2b, 0xc8, 0x88, 0x68, 0x82, 0x81, 0xfe, 0x3f, 0x0b, 0x24, 0xd9, 0x44,
  0x11, 0x53, 0x36, 0x7a, 0xd4, 0x81, 0x0b, 0xfc, 0xc3, 0xb5, 0x1e, 0xef,
  0xfc, 0x7f, 0x46, 0x2b, 0x01, 0xc1, 0x0d, 0x0c, 0xc8, 0xec, 0x26, 0x86,
  0x87, 0xd5, 0xb9, 0x7f, 0x45, 0x37, 0xde, 0x7f, 0x3f, 0x4d, 0xe0, 0xa8,
  0xa3, 0xb5, 0xd2, 0x23, 0x3f, 0x7f, 0x75, 0xdc, 0xf9, 0x8e, 0x38, 0x49,
  0x19, 0x99, 0x22, 0xa3, 0x35, 0xee, 0x81, 0x34, 0x2f, 0x9a, 0xab, 0x2f,
  0x9e, 0x5d, 0xe7, 0x1e, 0xca, 0xd5, 0x0b, 0x81, 0xa8, 0x32, 0x1f, 0x23,
  0x43, 0xef, 0x81, 0x83, 0xf5, 0x3d, 0xf9, 0xf1, 0x09, 0xc1, 0xc8, 0x81,
  0x35, 0xce, 0x18, 0x91, 0x81, 0xe7, 0x10, 0xd0, 0x52, 0x91, 0x2f, 0x02,
  0x49, 0xfa, 0xd0, 0x6a, 0xbd, 0x47, 0x81, 0xc7, 0x2c, 0x9f, 0xe1, 0x41,
  0x4f, 0xbb, 0xdb, 0xd2, 0xf5, 0xb0, 0x10, 0x81, 0xbc, 0x4a, 0xe0, 0x81,
  0xb1, 0xa8, 0x23, 0x18, 0xb8, 0x1f, 0x26, 0xf9, 0x0a, 0x50, 0xc2, 0xa8,
  0x92, 0x81, 0xfb, 0xb9, 0xe0, 0xac, 0x90, 0x81, 0x23, 0x3b, 0x1b, 0x2e,
  0xeb, 0xd7, 0xf4, 0x04, 0x2b, 0x36, 0x13, 0x5f, 0xb0, 0x0e, 0xdc, 0x81,
  0x27, 0x08, 0xc5, 0xb0, 0x45, 0x0b, 0x81, 0xe6, 0x13, 0xb6, 0xaa, 0xa1,
  0xc7, 0xd4, 0x02, 0x1b, 0xe1, 0x06, 0xf4, 0x3f, 0x81, 0x2b, 0xb9, 0xd5,
  0x81, 0x1c, 0x0f, 0x9f, 0xb2, 0xca, 0xa3, 0x27, 0x81, 0x29, 0x4a, 0x4a,
  0x55, 0x63, 0x06, 0xf6, 0x24, 0xb8, 0xde, 0xe5, 0x7f, 0xd4, 0xce, 0x06,
  0x67, 0xa7, 0x96, 0xd3, 0xa3, 0x55, 0xa1, 0xa3, 0x81, 0x2b, 0x1b, 0x49,
  0xbb, 0x10, 0x65, 0x2f, 0x41, 0x1b, 0x33, 0x10, 0xab, 0x39, 0x81, 0xa5,
  0x81, 0x10, 0xec, 0x2f, 0x98, 0xdc, 0x95, 0x04, 0x67, 0xca, 0xe4, 0x1f,
  0xa6, 0x56, 0x81, 0xc4, 0x96, 0x77, 0xe4, 0x72, 0xe4, 0x05, 0xca, 0x81,
  0x92, 0xd7, 0xf1, 0x8e, 0x32, 0x90, 0x97, 0x32, 0xbb, 0x05, 0x7f, 0x56,
  0x61, 0xe2, 0xf7, 0xd8, 0x20, 0x0e, 0xa4, 0x81, 0x24, 0x88, 0x22, 0x57,
  0x52, 0x9d, 0xe7, 0x2b, 0xa2, 0x99, 0x39, 0x09, 0xed, 0x42, 0xf3, 0x81,
  0xdd, 0xfa, 0xf7, 0x22, 0xb2, 0xd6, 0xd2, 0x81, 0xb6, 0xa5, 0xca, 0xb8,
  0x26, 0x39, 0xc1, 0x81, 0xdf, 0xa8, 0xb4, 0x11, 0xf2, 0xc7, 0xae, 0xb6,
  0xc4, 0xe9, 0x81, 0x1b, 0xfc, 0x31, 0x20, 0x64, 0x52, 0x17, 0x5b, 0x81,
  0x96, 0xc7, 0x36, 0x09, 0x09, 0x13, 0x27, 0xaa, 0x11, 0x81, 0xb9, 0x41,
  0xaa, 0xe6, 0xd7, 0xf5, 0x81, 0x4b, 0x48, 0xad, 0xe9, 0x6c, 0xb6, 0xa4,
  0x2c, 0xca, 0x98, 0x81, 0xe2, 0x34, 0x7e, 0x34, 0xa4, 0x0b, 0x55, 0x0f,
  0x4c, 0xde, 0xc1, 0xce, 0x5e, 0x81, 0x6f, 0x00, 0xa2, 0x95, 0xa7, 0x3e,
  0xdc, 0x1b, 0x9e, 0x81, 0x58, 0x1c, 0xda, 0x11, 0x81, 0x3e, 0x53, 0xbe,
  0xe7, 0x20, 0xce, 0x1e, 0x1e, 0x81, 0xfa, 0x9a, 0xe5, 0xc0, 0xf1, 0x16,
  0xf1, 0x3c, 0xa6, 0x10, 0x3e, 0xe5, 0x88, 0x7f, 0x19, 0x2f, 0xe5, 0xd5,
  0xe8, 0xb1, 0x64, 0xd9, 0xa0, 0xcf, 0xbe, 0x61, 0x81, 0x3c, 0x81, 0xc1,
  0xb8, 0x6e, 0xfb, 0x96, 0x9a, 0xfc, 0x47, 0x30, 0x9b, 0xbf, 0x03, 0x83,
  0xca, 0xa7, 0x0b, 0x6b, 0x81, 0xc0, 0x81, 0x0e, 0x55, 0xa6, 0x9e, 0x04,
  0x47, 0x51, 0x94, 0xb7, 0x07, 0x2e, 0x28, 0x81, 0x3d, 0xf9, 0xf3, 0xe0,
  0x4a, 0xce, 0x42, 0xa4, 0x32, 0xad, 0x8a, 0x81, 0xb8, 0xd7, 0xcb, 0x5e,
  0x58, 0xfe, 0x59, 0xa8, 0x7f, 0x59, 0x69, 0xd8, 0xef, 0x42, 0xd5, 0x7f,
  0x14, 0xcd, 0x9c, 0xbd, 0x9b, 0x0b, 0x17, 0x81, 0xe7, 0x04, 0x1b, 0x81,
  0x63, 0x14, 0x1a, 0x29, 0xd6, 0xb9, 0x6b, 0xf1, 0x3c, 0xb5, 0x91, 0xe9,
  0xeb, 0xa6, 0x3c, 0x7f, 0xd3, 0x7f, 0xe7, 0xd3, 0xc5, 0xe3, 0x7a, 0x20,
  0xfd, 0x49, 0x9b, 0xe1, 0xef, 0x63, 0x18, 0x81, 0x8e, 0x43, 0x38, 0xb0,
  0x16, 0xd0, 0x92, 0x96, 0x81, 0x23, 0x60, 0x19, 0x96, 0x18, 0xfb, 0x95,
  0x16, 0xc9, 0x81, 0xa7, 0x1e, 0x9d, 0xa0, 0xbb, 0xc8, 0xef, 0x09, 0x1a,
  0x81, 0xb0, 0xa0, 0xa9, 0xf6, 0x62, 0xc2, 0xf4, 0x81, 0xc4, 0x7c, 0x68,
  0x3b, 0xc5, 0x07, 0xc5, 0xbc, 0xad, 0xa0, 0xa1, 0x97, 0x9b, 0x81, 0x4f,
  0x18, 0x13, 0xdc, 0x38, 0x4d, 0x8a, 0xf2, 0xbc, 0xf9, 0x81, 0xaf, 0x2a,
  0x59, 0xef, 0xec, 0x25, 0x46, 0x2b, 0x34, 0xd9, 0x25, 0x81, 0x9d, 0x24,
  0x3e, 0x9d, 0xd0, 0x99, 0x00, 0xae, 0x81, 0x45, 0xed, 0x92, 0x81, 0x0c,
  0xb3, 0xa9, 0xfc, 0xa1, 0xb5, 0xdd, 0x3f, 0x32, 0x2e, 0xcf, 0xe0, 0x04,
  0xe5, 0x20, 0x81, 0x06, 0xc8, 0xd5, 0x81, 0xf6, 0x90, 0x8e, 0xa4, 0xe7,
  0xa4, 0x00, 0xce, 0x14, 0x0b, 0x8f, 0xd5, 0xd5, 0x81, 0x34, 0x8b, 0x43,
  0x1c, 0x01, 0x18, 0xc1, 0x81, 0xa8, 0xa1, 0xaf, 0x82, 0x82, 0x0f, 0xa8,
  0xd1, 0xe6, 0xd1, 0xe4, 0x45, 0xdc, 0xe6, 0x81, 0x00, 0x16, 0xaf, 0xa7,
  0x34, 0x43, 0x3a, 0xc4, 0x17, 0x81, 0xcb, 0x11, 0xc4, 0xbc, 0x22, 0xe6,
  0xc7, 0xe8, 0xef, 0x81, 0x1d, 0x81, 0x25, 0xb7, 0x51, 0xc7, 0x21, 0x38,
  0x4c, 0x47, 0x81, 0x3a, 0xc9, 0xd6, 0xd5, 0xe0, 0xdd, 0xa0, 0xdf, 0xd5,
  0x1d, 0x41, 0x0d, 0x27, 0xbd, 0x05, 0x08, 0xcf, 0x81, 0x9a, 0x9b, 0xd2,
  0xdf, 0x1a, 0x81, 0x27, 0xb8, 0xed, 0xf5, 0x0b, 0x41, 0xbc, 0x7f, 0x04,
  0xe0, 0x5b, 0xad, 0x40, 0x21, 0xdb, 0xe9, 0x3c, 0xf0, 0xda, 0xbf, 0x45,
  0x81, 0x9e, 0xb6, 0xdf, 0xd7, 0x9f, 0xa6, 0x81, 0xe8, 0xe8, 0xe1, 0xca,
  0xfb, 0xb5, 0xf7, 0x81, 0x29, 0x22, 0xa5, 0xa5, 0xe1, 0xfe, 0x9c, 0xe2,
  0xfd, 0x8e, 0x1b, 0x24, 0xe7, 0xc3, 0x00, 0xed, 0x03, 0x81, 0xfd, 0xee,
  0x85, 0xe9, 0x81, 0x05, 0x08, 0x2e, 0xa0, 0x9e, 0x54, 0x90, 0xf1, 0x05,
  0x54, 0xbc, 0xba, 0xe8, 0x81, 0xfa, 0x81, 0x38, 0xf2, 0xfc, 0x15, 0x91,
  0x36, 0x35, 0x2d, 0xf5, 0xf5, 0xf5, 0xf9, 0x36, 0xb3, 0x20, 0x0b, 0xbf,
  0x81, 0x27, 0xd7, 0xcf, 0x8f, 0xef, 0xc4, 0x2c, 0x49, 0x81, 0xbd, 0xab,
  0x1a, 0x55, 0x03, 0x26, 0xfb, 0xa6, 0x30, 0x81, 0x0c, 0x48, 0xd4, 0xc5,
  0x0d, 0x46, 0xd9, 0xd1, 0xb1, 0x81, 0xc6, 0xc2, 0x81, 0xdf, 0xd0, 0x03,
  0xbc, 0x3a, 0xc2, 0xdc, 0x0b, 0xa5, 0x19, 0xe2, 0xd9, 0x81, 0x12, 0x38,
  0xfa, 0xe8, 0xdd, 0x08, 0xd8, 0x81, 0xab, 0xc5, 0xd8, 0x0b, 0x97, 0x4e,
  0x48, 0x0a, 0x2f, 0x81, 0xbf, 0x27, 0x08, 0xd8, 0x96, 0x3d, 0xaa, 0x2b,
  0x9e, 0x92, 0x84, 0x1d, 0xcc, 0xdd, 0x81, 0xe6, 0xcb, 0xca, 0x81, 0x0b,
  0x92, 0x28, 0x53, 0x58, 0x63, 0x18, 0x90, 0xce, 0xe7, 0xdc, 0x27, 0xac,
  0xac, 0x81, 0x2f, 0x43, 0x45, 0x16, 0x14, 0xe2, 0x07, 0xcd, 0xde, 0xc9,
  0x2a, 0x45, 0x81, 0xef, 0x36, 0x3c, 0x4d, 0xe9, 0xbd, 0x90, 0x8a, 0x81,
  0xe5, 0xce, 0x11, 0xc7, 0xe2, 0x03, 0x16, 0xfe, 0x86, 0xa0, 0x81, 0x92,
  0xf0, 0x00, 0x25, 0x96, 0xde, 0x0e, 0x00, 0x41, 0x81, 0x3a, 0x06, 0x90,
  0xe8, 0x42, 0x81, 0xa2, 0xc8, 0xd2, 0xd6, 0x45, 0x0e, 0xfc, 0xff, 0xff,
  0x04, 0x00, 0x00, 0x00, 0x20, 0x03, 0x00, 0x00, 0x43, 0x65, 0x8b, 0x3b,
  0x63, 0xc0, 0xad, 0x3b, 0xdc, 0x13, 0x57, 0x3b, 0x54, 0x2c, 0x98, 0x3b,
  0xc9, 0xa3, 0x0f, 0x3b, 0x3a, 0x01, 0x6f, 0x3a, 0x22, 0xe1, 0x1a, 0x3b,
  0x9d, 0x2e, 0xf0, 0x3a, 0x80, 0xf8, 0x8b, 0x3b, 0x5d, 0x46, 0x8e, 0x3a,
  0x94, 0x2d, 0xe0, 0x39, 0x14, 0xa1, 0x5a, 0x3a, 0xb8, 0x9f, 0xa2, 0x3b,
  0x90, 0xb8, 0x98, 0x3b, 0x4a, 0x32, 0x96, 0x3b, 0x39, 0x30, 0xae, 0x3b,
  0x83, 0x56, 0xd7, 0x3a, 0x8e, 0xe7, 0x2d, 0x3a, 0x91, 0x1a, 0xaa, 0x3b,
  0x64, 0x55, 0x59, 0x3a, 0xc3, 0x67, 0xbc, 0x3b, 0xa6, 0x53, 0xaf, 0x39,
  0x05, 0xc3, 0x63, 0x3b, 0x1d, 0x24, 0xaa, 0x3a, 0x3d, 0x42, 0x86, 0x3b,
  0x10, 0x32, 0x85, 0x3b, 0x56, 0x56, 0x8a, 0x3b, 0x43, 0x27, 0x63, 0x3b,
  0xa6, 0x85, 0xcb, 0x3a, 0x32, 0xf8, 0xc5, 0x3b, 0x2b, 0x23, 0x22, 0x3b,
  0x52, 0xc0, 0xbc, 0x3b, 0x7d, 0x88, 0x29, 0x3b, 0xf3, 0x04, 0xae, 0x3b,
  0x2a, 0x14, 0x88, 0x3a, 0x86, 0xd3, 0xf3, 0x3a, 0xdb, 0x92, 0xd9, 0x3b,
  0xe7, 0xb1, 0x74, 0x3b, 0x10, 0x64, 0x41, 0x3a, 0xa0, 0x45, 0x4c, 0x3b,
  0x9d, 0x2a, 0xbd, 0x3b, 0x94, 0xc5, 0x04, 0x3b, 0xbe, 0x5c, 0x58, 0x3b,
  0x11, 0x42, 0x5e, 0x3b, 0xa8, 0x9c, 0x4b, 0x3b, 0xdc, 0x49, 0x97, 0x39,
  0xe8, 0xd4, 0x7a, 0x3b, 0xab, 0xae, 0x08, 0x3b, 0xeb, 0x8a, 0x8a, 0x3b,
  0xbb, 0x7f, 0xaf, 0x3a, 0xfc, 0x77, 0x27, 0x3b, 0x0e, 0x77, 0xaa, 0x3b,
  0xa9, 0x37, 0x9b, 0x3b, 0x29, 0x67, 0x51, 0x3a, 0x38, 0x28, 0xa5, 0x3a,
  0x66, 0x49, 0x9c, 0x3b, 0x2f, 0x4c, 0x81, 0x3b, 0x6f, 0x81, 0xb3, 0x3b,
  0xd3, 0x85, 0xc0, 0x3b, 0x42, 0x44, 0xde, 0x3a, 0x25, 0x3c, 0xa7, 0x3b,
  0x11, 0x3f, 0x14, 0x3b, 0xb0, 0x4f, 0x79, 0x3a, 0xf7, 0xbf, 0x67, 0x3b,
  0x45, 0x07, 0x8d, 0x3a, 0xc5, 0xb1, 0x00, 0x3b, 0x3c, 0xbc, 0x68, 0x3b,
  0xd9, 0x2b, 0xaa, 0x3b, 0x3f, 0xab, 0xb5, 0x3b, 0x89, 0x2e, 0xc7, 0x3b,
  0x94, 0x76, 0x48, 0x3a, 0x7b, 0x63, 0xd4, 0x3b, 0x48, 0x69, 0xe7, 0x3a,
  0x96, 0xaf, 0xf8, 0x3a, 0xee, 0xa7, 0x8e, 0x3b, 0x18, 0x09, 0xdd, 0x3a,
  0x70, 0xef, 0x28, 0x3b, 0xa3, 0x0e, 0x8f, 0x3b, 0x94, 0xb4, 0xac, 0x3b,
  0xc0, 0x5f, 0x59, 0x3a, 0xdb, 0xa9, 0xb5, 0x3a, 0xfc, 0xc8, 0x47, 0x3b,
  0xf2, 0x2f, 0xa9, 0x3a, 0x9d, 0x02, 0xa6, 0x3b, 0xa3, 0xc3, 0x9c, 0x3b,
  0x8d, 0xb0, 0x66, 0x3b, 0x7d, 0x64, 0xc6, 0x3b, 0xec, 0xc0, 0x05, 0x3b,
  0x4b, 0x4f, 0x50, 0x3b, 0x8f, 0x1b, 0x0f, 0x3b, 0x4f, 0xa0, 0x73, 0x3a,
  0x8b, 0xa1, 0x73, 0x3b, 0x16, 0x86, 0x0d, 0x3b, 0xde, 0x65, 0x32, 0x3b,
  0x3c, 0x50, 0x6f, 0x39, 0x87, 0x78, 0x55, 0x3b, 0xaf, 0xe8, 0xae, 0x3b,
  0x9e, 0x43, 0x2e, 0x3b, 0x56, 0x1d, 0x5f, 0x3b, 0x3f, 0x8f, 0x68, 0x3b,
  0xed, 0xe5, 0x3c, 0x3b, 0xe3, 0xde, 0x22, 0x3b, 0x7d, 0xc8, 0xb3, 0x3a,
  0xe0, 0xeb, 0x90, 0x3b, 0x33, 0xa0, 0x7e, 0x3b, 0xa8, 0x6c, 0x58, 0x3b,
  0xca, 0xfd, 0x21, 0x3b, 0x4d, 0xbf, 0x22, 0x3a, 0xe0, 0x70, 0x1d, 0x3b,
  0xe1, 0x53, 0x11, 0x3b, 0xf3, 0x74, 0x6d, 0x3a, 0x69, 0xf0, 0xb8, 0x3b,
  0x61, 0x11, 0x1e, 0x3b, 0x17, 0xeb, 0x6c, 0x3a, 0x4f, 0x6c, 0x27, 0x3b,
  0x31, 0x05, 0x9b, 0x3b, 0x1b, 0xc7, 0x6c, 0x3b, 0xa4, 0x26, 0x87, 0x3b,
  0xd5, 0x76, 0x9c, 0x3b, 0xc4, 0x95, 0xef, 0x3a, 0xbd, 0x40, 0xee, 0x3a,
  0xff, 0x27, 0x95, 0x3a, 0x50, 0x8f, 0xba, 0x3b, 0x90, 0x40, 0xb6, 0x3b,
  0x48, 0xbf, 0x45, 0x3b, 0xdc, 0x62, 0x68, 0x3b, 0x07, 0x47, 0xc9, 0x3b,
  0x58, 0x38, 0xaa, 0x3a, 0xb6, 0xb8, 0x4e, 0x3b, 0x0c, 0x3d, 0x87, 0x3a,
  0xc7, 0x75, 0x1e, 0x3b, 0x88, 0x0a, 0x3b, 0x3b, 0x69, 0x4f, 0x74, 0x3a,
  0x50, 0x93, 0x8d, 0x3b, 0x36, 0xa6, 0xbf, 0x3b, 0xca, 0xe7, 0x47, 0x3b,
  0xf3, 0x96, 0xea, 0x3a, 0xd0, 0x26, 0x0a, 0x3a, 0x2f, 0x7d, 0x68, 0x3b,
  0xbf, 0xaf, 0x04, 0x3b, 0x65, 0x35, 0xc3, 0x3b, 0xf2, 0x8f, 0x74, 0x3b,
  0x4c, 0xc7, 0x21, 0x3a, 0x35, 0x68, 0x53, 0x3b, 0xc2, 0x6a, 0xa2, 0x3a,
  0x80, 0x04, 0x99, 0x3a, 0x8d, 0xe6, 0x78, 0x3b, 0xde, 0x22, 0x8f, 0x3b,
  0x4f, 0xaf, 0x3e, 0x3b, 0x7e, 0x68, 0x3d, 0x3b, 0x2b, 0x48, 0xa9, 0x3a,
  0x15, 0x3b, 0xa4, 0x3a, 0xcf, 0x5b, 0x86, 0x3b, 0x5a, 0x6a, 0x5d, 0x3b,
  0xef, 0x15, 0xaa, 0x3b, 0x2c, 0xee, 0xea, 0x3a, 0x7f, 0xe0, 0x82, 0x3a,
  0xd6, 0x15, 0x94, 0x3b, 0x77, 0x6f, 0xb2, 0x3a, 0xb8, 0x45, 0x8a, 0x3a,
  0xf3, 0x50, 0x4b, 0xbd, 0x86, 0x57, 0x4b, 0xbd, 0x32, 0xb5, 0x4b, 0xbd,
  0xfb, 0x44, 0x4b, 0xbd, 0x6b, 0x4d, 0x4b, 0xbd, 0x7b, 0x76, 0x4b, 0xbd,
  0x58, 0x43, 0x4b, 0xbd, 0xab, 0x53, 0x4b, 0xbd, 0xf0, 0x1e, 0x4b, 0xbd,
  0x36, 0x72, 0x4b, 0xbd, 0x73, 0xad, 0x4b, 0xbd, 0xeb, 0x7f, 0x4b, 0xbd,
  0xaf, 0x86, 0x4b, 0xbd, 0xf2, 0x7d, 0x4b, 0xbd, 0x4f, 0x80, 0x4b, 0xbd,
  0xa7, 0x84, 0x4b, 0xbd, 0xb1, 0x99, 0x4b, 0xbd, 0xfd, 0x87, 0x4b, 0xbd,
  0xb8, 0x5f, 0x4b, 0xbd, 0x21, 0x46, 0x4b, 0xbd, 0x61, 0x65, 0x4b, 0xbd,
  0xd0, 0x72, 0x4b, 0xbd, 0xa7, 0x63, 0x4b, 0xbd, 0x8e, 0x9d, 0x4b, 0xbd,
  0x0b, 0x83, 0x4b, 0xbd, 0xdb, 0x7d, 0x4b, 0xbd, 0xa9, 0x9e, 0x4b, 0xbd,
  0x63, 0x68, 0x4b, 0xbd, 0x21, 0x91, 0x4b, 0xbd, 0x60, 0x82, 0x4b, 0xbd,
  0x9b, 0x8a, 0x4b, 0xbd, 0x0d, 0x6b, 0x4b, 0xbd, 0x88, 0x67, 0x4b, 0xbd,
  0xd3, 0xbc, 0x4b, 0xbd, 0x8a, 0x5b, 0x4b, 0xbd, 0x5a, 0x56, 0x4b, 0xbd,
  0x82, 0x57, 0x4b, 0xbd, 0xe9, 0x68, 0x4b, 0xbd, 0x6c, 0x71, 0x4b, 0xbd,
  0x0b, 0x59, 0x4b, 0xbd, 0x3a, 0xff, 0xff, 0xff, 0x04, 0x00, 0x00, 0x00,
  0x28, 0x00, 0x00, 0x00, 0xea, 0xe5, 0xc5, 0x3b, 0xba, 0x71, 0xdf, 0x3c,
  0x21, 0x4e, 0x2b, 0xbc, 0x56, 0xf2, 0xc8, 0x3c, 0x37, 0x77, 0x04, 0x3d,
  0x3b, 0xe8, 0x1d, 0x3d, 0x63, 0xe2, 0x4a, 0x3c, 0x60, 0xe1, 0x67, 0x3c,
  0x9a, 0x30, 0x06, 0x3d, 0xd9, 0xd4, 0x62, 0x3c, 0xbc, 0xf1, 0xff, 0xff,
  0xc0, 0xf1, 0xff, 0xff, 0x0f, 0x00, 0x00, 0x00, 0x4d, 0x4c, 0x49, 0x52,
  0x20, 0x43, 0x6f, 0x6e, 0x76, 0x65, 0x72, 0x74, 0x65, 0x64, 0x2e, 0x00,
  0x01, 0x00, 0x00, 0x00, 0x14, 0x00, 0x00, 0x00, 0x00, 0x00, 0x0e, 0x00,
  0x18, 0x00, 0x14, 0x00, 0x10, 0x00, 0x0c, 0x00, 0x08, 0x00, 0x04, 0x00,
  0x0e, 0x00, 0x00, 0x00, 0x14, 0x00, 0x00, 0x00, 0x1c, 0x00, 0x00, 0x00,
  0x00, 0x01, 0x00, 0x00, 0x04, 0x01, 0x00, 0x00, 0x08, 0x01, 0x00, 0x00,
  0x04, 0x00, 0x00, 0x00, 0x6d, 0x61, 0x69, 0x6e, 0x00, 0x00, 0x00, 0x00,
  0x03, 0x00, 0x00, 0x00, 0xa4, 0x00, 0x00, 0x00, 0x50, 0x00, 0x00, 0x00,
  0x14, 0x00, 0x00, 0x00, 0x00, 0x00, 0x0e, 0x00, 0x1a, 0x00, 0x14, 0x00,
  0x10, 0x00, 0x0c, 0x00, 0x0b, 0x00, 0x04, 0x00, 0x0e, 0x00, 0x00, 0x00,
  0x1c, 0x00, 0x00, 0x00, 0x00, 0x00, 0x00, 0x09, 0x1c, 0x00, 0x00, 0x00,
  0x20, 0x00, 0x00, 0x00, 0x01, 0x00, 0x00, 0x00, 0x00, 0x00, 0x06, 0x00,
  0x08, 0x00, 0x04, 0x00, 0x06, 0x00, 0x00, 0x00, 0x00, 0x00, 0x80, 0x3f,
  0x01, 0x00, 0x00, 0x00, 0x07, 0x00, 0x00, 0x00, 0x01, 0x00, 0x00, 0x00,
  0x06, 0x00, 0x00, 0x00, 0xbe, 0xff, 0xff, 0xff, 0x1c, 0x00, 0x00, 0x00,
  0x00, 0x00, 0x00, 0x08, 0x1c, 0x00, 0x00, 0x00, 0x20, 0x00, 0x00, 0x00,
  0x0c, 0x00, 0x08, 0x00, 0x00, 0x00, 0x00, 0x00, 0x00, 0x00, 0x07, 0x00,
  0x0c, 0x00, 0x00, 0x00, 0x00, 0x00, 0x00, 0x01, 0x01, 0x00, 0x00, 0x00,
  0x06, 0x00, 0x00, 0x00, 0x03, 0x00, 0x00, 0x00, 0x05, 0x00, 0x00, 0x00,
  0x03, 0x00, 0x00, 0x00, 0x02, 0x00, 0x00, 0x00, 0x00, 0x00, 0x0e, 0x00,
  0x14, 0x00, 0x00, 0x00, 0x10, 0x00, 0x0c, 0x00, 0x0b, 0x00, 0x04, 0x00,
  0x0e, 0x00, 0x00, 0x00, 0x1c, 0x00, 0x00, 0x00, 0x00, 0x00, 0x00, 0x08,
  0x1c, 0x00, 0x00, 0x00, 0x20, 0x00, 0x00, 0x00, 0x0c, 0x00, 0x08, 0x00,
  0x07, 0x00, 0x00, 0x00, 0x00, 0x00, 0x06, 0x00, 0x0c, 0x00, 0x00, 0x00,
  0x00, 0x00, 0x01, 0x01, 0x01, 0x00, 0x00, 0x00, 0x05, 0x00, 0x00, 0x00,
  0x03, 0x00, 0x00, 0x00, 0x00, 0x00, 0x00, 0x00, 0x04, 0x00, 0x00, 0x00,
  0x01, 0x00, 0x00, 0x00, 0x01, 0x00, 0x00, 0x00, 0x07, 0x00, 0x00, 0x00,
  0x01, 0x00, 0x00, 0x00, 0x00, 0x00, 0x00, 0x00, 0x08, 0x00, 0x00, 0x00,
  0xc8, 0x0c, 0x00, 0x00, 0x74, 0x0c, 0x00, 0x00, 0x20, 0x0c, 0x00, 0x00,
  0x5c, 0x02, 0x00, 0x00, 0x6c, 0x01, 0x00, 0x00, 0xdc, 0x00, 0x00, 0x00,
  0x60, 0x00, 0x00, 0x00, 0x04, 0x00, 0x00, 0x00, 0x6e, 0xf3, 0xff, 0xff,
  0x00, 0x00, 0x00, 0x01, 0x14, 0x00, 0x00, 0x00, 0x1c, 0x00, 0x00, 0x00,
  0x1c, 0x00, 0x00, 0x00, 0x08, 0x00, 0x00, 0x00, 0x34, 0x00, 0x00, 0x00,
  0x02, 0x00, 0x00, 0x00, 0xff, 0xff, 0xff, 0xff, 0xc8, 0x00, 0x00, 0x00,
  0x58, 0xf3, 0xff, 0xff, 0x1b, 0x00, 0x00, 0x00, 0x53, 0x74, 0x61, 0x74,
  0x65, 0x66, 0x75, 0x6c, 0x50, 0x61, 0x72, 0x74, 0x69, 0x74, 0x69, 0x6f,
  0x6e, 0x65, 0x64, 0x43, 0x61, 0x6c, 0x6c, 0x5f, 0x31, 0x3a, 0x30, 0x00,
  0x02, 0x00, 0x00, 0x00, 0x01, 0x00, 0x00, 0x00, 0xc8, 0x00, 0x00, 0x00,
  0xc6, 0xf3, 0xff, 0xff, 0x00, 0x00, 0x00, 0x01, 0x14, 0x00, 0x00, 0x00,
  0x1c, 0x00, 0x00, 0x00, 0x1c, 0x00, 0x00, 0x00, 0x07, 0x00, 0x00, 0x00,
  0x54, 0x00, 0x00, 0x00, 0x02, 0x00, 0x00, 0x00, 0xff, 0xff, 0xff, 0xff,
  0xc8, 0x00, 0x00, 0x00, 0xb0, 0xf3, 0xff, 0xff, 0x38, 0x00, 0x00, 0x00,
  0x73, 0x65, 0x71, 0x75, 0x65, 0x6e, 0x74, 0x69, 0x61, 0x6c, 0x5f, 0x31,
  0x2f, 0x64, 0x65, 0x6e, 0x73, 0x65, 0x5f, 0x31, 0x5f, 0x32, 0x2f, 0x4d,
  0x61, 0x74, 0x4d, 0x75, 0x6c, 0x3b, 0x73, 0x65, 0x71, 0x75, 0x65, 0x6e,
  0x74, 0x69, 0x61, 0x6c, 0x5f, 0x31, 0x2f, 0x64, 0x65, 0x6e, 0x73, 0x65,
  0x5f, 0x31, 0x5f, 0x32, 0x2f, 0x41, 0x64, 0x64, 0x00, 0x00, 0x00, 0x00,
  0x02, 0x00, 0x00, 0x00, 0x01, 0x00, 0x00, 0x00, 0xc8, 0x00, 0x00, 0x00,
  0x3e, 0xf4, 0xff, 0xff, 0x00, 0x00, 0x00, 0x01, 0x14, 0x00, 0x00, 0x00,
  0x1c, 0x00, 0x00, 0x00, 0x1c, 0x00, 0x00, 0x00, 0x06, 0x00, 0x00, 0x00,
  0x68, 0x00, 0x00, 0x00, 0x02, 0x00, 0x00, 0x00, 0xff, 0xff, 0xff, 0xff,
  0x0a, 0x00, 0x00, 0x00, 0x28, 0xf4, 0xff, 0xff, 0x4e, 0x00, 0x00, 0x00,
  0x73, 0x65, 0x71, 0x75, 0x65, 0x6e, 0x74, 0x69, 0x61, 0x6c, 0x5f, 0x31,
  0x2f, 0x64, 0x65, 0x6e, 0x73, 0x65, 0x5f, 0x31, 0x2f, 0x4d, 0x61, 0x74,
  0x4d, 0x75, 0x6c, 0x3b, 0x73, 0x65, 0x71, 0x75, 0x65, 0x6e, 0x74, 0x69,
  0x61, 0x6c, 0x5f, 0x31, 0x2f, 0x64, 0x65, 0x6e, 0x73, 0x65, 0x5f, 0x31,
  0x2f, 0x52, 0x65, 0x6c, 0x75, 0x3b, 0x73, 0x65, 0x71, 0x75, 0x65, 0x6e,
  0x74, 0x69, 0x61, 0x6c, 0x5f, 0x31, 0x2f, 0x64, 0x65, 0x6e, 0x73, 0x65,
  0x5f, 0x31, 0x2f, 0x41, 0x64, 0x64, 0x00, 0x00, 0x02, 0x00, 0x00, 0x00,
  0x01, 0x00, 0x00, 0x00, 0x0a, 0x00, 0x00, 0x00, 0x2a, 0xff, 0xff, 0xff,
  0x00, 0x00, 0x00, 0x01, 0x14, 0x00, 0x00, 0x00, 0x9c, 0x00, 0x00, 0x00,
  0x05, 0x00, 0x00, 0x00, 0x00, 0x00, 0x00, 0x09, 0xb0, 0x00, 0x00, 0x00,
  0x14, 0xff, 0xff, 0xff, 0x08, 0x00, 0x00, 0x00, 0x58, 0x00, 0x00, 0x00,
  0x0a, 0x00, 0x00, 0x00, 0x00, 0x00, 0x00, 0x00, 0x00, 0x00, 0x00, 0x00,
  0x00, 0x00, 0x00, 0x00, 0x00, 0x00, 0x00, 0x00, 0x00, 0x00, 0x00, 0x00,
  0x00, 0x00, 0x00, 0x00, 0x00, 0x00, 0x00, 0x00, 0x00, 0x00, 0x00, 0x00,
  0x00, 0x00, 0x00, 0x00, 0x00, 0x00, 0x00, 0x00, 0x00, 0x00, 0x00, 0x00,
  0x00, 0x00, 0x00, 0x00, 0x00, 0x00, 0x00, 0x00, 0x00, 0x00, 0x00, 0x00,
  0x00, 0x00, 0x00, 0x00, 0x00, 0x00, 0x00, 0x00, 0x00, 0x00, 0x00, 0x00,
  0x00, 0x00, 0x00, 0x00, 0x00, 0x00, 0x00, 0x00, 0x00, 0x00, 0x00, 0x00,
  0x0a, 0x00, 0x00, 0x00, 0xe2, 0x5a, 0xb9, 0x3a, 0x49, 0x81, 0xc2, 0x3a,
  0x7e, 0xd6, 0xc2, 0x3a, 0x03, 0x5e, 0xc2, 0x3a, 0x4c, 0x50, 0xc3, 0x3a,
  0x7a, 0x8f, 0xbc, 0x3a, 0x4d, 0xa6, 0xc1, 0x3a, 0x33, 0xc3, 0xc4, 0x3a,
  0x88, 0xa7, 0xc2, 0x3a, 0xb6, 0x75, 0xc2, 0x3a, 0x1b, 0x00, 0x00, 0x00,
  0x73, 0x65, 0x71, 0x75, 0x65, 0x6e, 0x74, 0x69, 0x61, 0x6c, 0x5f, 0x31,
  0x2f, 0x64, 0x65, 0x6e, 0x73, 0x65, 0x5f, 0x31, 0x2f, 0x4d, 0x61, 0x74,
  0x4d, 0x75, 0x6c, 0x00, 0x02, 0x00, 0x00, 0x00, 0x0a, 0x00, 0x00, 0x00,
  0xcd, 0x00, 0x00, 0x00, 0x00, 0x00, 0x16, 0x00, 0x1c, 0x00, 0x18, 0x00,
  0x17, 0x00, 0x10, 0x00, 0x0c, 0x00, 0x08, 0x00, 0x00, 0x00, 0x00, 0x00,
  0x00, 0x00, 0x07, 0x00, 0x16, 0x00, 0x00, 0x00, 0x00, 0x00, 0x00, 0x01,
  0x20, 0x00, 0x00, 0x00, 0x90, 0x09, 0x00, 0x00, 0x04, 0x00, 0x00, 0x00,
  0x00, 0x00, 0x00, 0x09, 0x9c, 0x09, 0x00, 0x00, 0x0c, 0x00, 0x0c, 0x00,
  0x00, 0x00, 0x00, 0x00, 0x08, 0x00, 0x04, 0x00, 0x0c, 0x00, 0x00, 0x00,
  0x08, 0x00, 0x00, 0x00, 0x48, 0x06, 0x00, 0x00, 0xc8, 0x00, 0x00, 0x00,
  0x00, 0x00, 0x00, 0x00, 0x00, 0x00, 0x00, 0x00, 0x00, 0x00, 0x00, 0x00,
  0x00, 0x00, 0x00, 0x00, 0x00, 0x00, 0x00, 0x00, 0x00, 0x00, 0x00, 0x00,
  0x00, 0x00, 0x00, 0x00, 0x00, 0x00, 0x00, 0x00, 0x00, 0x00, 0x00, 0x00,
  0x00, 0x00, 0x00, 0x00, 0x00, 0x00, 0x00, 0x00, 0x00, 0x00, 0x00, 0x00,
  0x00, 0x00, 0x00, 0x00, 0x00, 0x00, 0x00, 0x00, 0x00, 0x00, 0x00, 0x00,
  0x00, 0x00, 0x00, 0x00, 0x00, 0x00, 0x00, 0x00, 0x00, 0x00, 0x00, 0x00,
  0x00, 0x00, 0x00, 0x00, 0x00, 0x00, 0x00, 0x00, 0x00, 0x00, 0x00, 0x00,
  0x00, 0x00, 0x00, 0x00, 0x00, 0x00, 0x00, 0x00, 0x00, 0x00, 0x00, 0x00,
  0x00, 0x00, 0x00, 0x00, 0x00, 0x00, 0x00, 0x00, 0x00, 0x00, 0x00, 0x00,
  0x00, 0x00, 0x00, 0x00, 0x00, 0x00, 0x00, 0x00, 0x00, 0x00, 0x00, 0x00,
  0x00, 0x00, 0x00, 0x00, 0x00, 0x00, 0x00, 0x00, 0x00, 0x00, 0x00, 0x00,
  0x00, 0x00, 0x00, 0x00, 0x00, 0x00, 0x00, 0x00, 0x00, 0x00, 0x00, 0x00,
  0x00, 0x00, 0x00, 0x00, 0x00, 0x00, 0x00, 0x00, 0x00, 0x00, 0x00, 0x00,
  0x00, 0x00, 0x00, 0x00, 0x00, 0x00, 0x00, 0x00, 0x00, 0x00, 0x00, 0x00,
  0x00, 0x00, 0x00, 0x00, 0x00, 0x00, 0x00, 0x00, 0x00, 0x00, 0x00, 0x00,
  0x00, 0x00, 0x00, 0x00, 0x00, 0x00, 0x00, 0x00, 0x00, 0x00, 0x00, 0x00,
  0x00, 0x00, 0x00, 0x00, 0x00, 0x00, 0x00, 0x00, 0x00, 0x00, 0x00, 0x00,
  0x00, 0x00, 0x00, 0x00, 0x00, 0x00, 0x00, 0x00, 0x00, 0x00, 0x00, 0x00,
  0x00, 0x00, 0x00, 0x00, 0x00, 0x00, 0x00, 0x00, 0x00, 0x00, 0x00, 0x00,
  0x00, 0x00, 0x00, 0x00, 0x00, 0x00, 0x00, 0x00, 0x00, 0x00, 0x00, 0x00,
  0x00, 0x00, 0x00, 0x00, 0x00, 0x00, 0x00, 0x00, 0x00, 0x00, 0x00, 0x00,
  0x00, 0x00, 0x00, 0x00, 0x00, 0x00, 0x00, 0x00, 0x00, 0x00, 0x00, 0x00,
  0x00, 0x00, 0x00, 0x00, 0x00, 0x00, 0x00, 0x00, 0x00, 0x00, 0x00, 0x00,
  0x00, 0x00, 0x00, 0x00, 0x00, 0x00, 0x00, 0x00, 0x00, 0x00, 0x00, 0x00,
  0x00, 0x00, 0x00, 0x00, 0x00, 0x00, 0x00, 0x00, 0x00, 0x00, 0x00, 0x00,
  0x00, 0x00, 0x00, 0x00, 0x00, 0x00, 0x00, 0x00, 0x00, 0x00, 0x00, 0x00,
  0x00, 0x00, 0x00, 0x00, 0x00, 0x00, 0x00, 0x00, 0x00, 0x00, 0x00, 0x00,
  0x00, 0x00, 0x00, 0x00, 0x00, 0x00, 0x00, 0x00, 0x00, 0x00, 0x00, 0x00,
  0x00, 0x00, 0x00, 0x00, 0x00, 0x00, 0x00, 0x00, 0x00, 0x00, 0x00, 0x00,
  0x00, 0x00, 0x00, 0x00, 0x00, 0x00, 0x00, 0x00, 0x00, 0x00, 0x00, 0x00,
  0x00, 0x00, 0x00, 0x00, 0x00, 0x00, 0x00, 0x00, 0x00, 0x00, 0x00, 0x00,
  0x00, 0x00, 0x00, 0x00, 0x00, 0x00, 0x00, 0x00, 0x00, 0x00, 0x00, 0x00,
  0x00, 0x00, 0x00, 0x00, 0x00, 0x00, 0x00, 0x00, 0x00, 0x00, 0x00, 0x00,
  0x00, 0x00, 0x00, 0x00, 0x00, 0x00, 0x00, 0x00, 0x00, 0x00, 0x00, 0x00,
  0x00, 0x00, 0x00, 0x00, 0x00, 0x00, 0x00, 0x00, 0x00, 0x00, 0x00, 0x00,
  0x00, 0x00, 0x00, 0x00, 0x00, 0x00, 0x00, 0x00, 0x00, 0x00, 0x00, 0x00,
  0x00, 0x00, 0x00, 0x00, 0x00, 0x00, 0x00, 0x00, 0x00, 0x00, 0x00, 0x00,
  0x00, 0x00, 0x00, 0x00, 0x00, 0x00, 0x00, 0x00, 0x00, 0x00, 0x00, 0x00,
  0x00, 0x00, 0x00, 0x00, 0x00, 0x00, 0x00, 0x00, 0x00, 0x00, 0x00, 0x00,
  0x00, 0x00, 0x00, 0x00, 0x00, 0x00, 0x00, 0x00, 0x00, 0x00, 0x00, 0x00,
  0x00, 0x00, 0x00, 0x00, 0x00, 0x00, 0x00, 0x00, 0x00, 0x00, 0x00, 0x00,
  0x00, 0x00, 0x00, 0x00, 0x00, 0x00, 0x00, 0x00, 0x00, 0x00, 0x00, 0x00,
  0x00, 0x00, 0x00, 0x00, 0x00, 0x00, 0x00, 0x00, 0x00, 0x00, 0x00, 0x00,
  0x00, 0x00, 0x00, 0x00, 0x00, 0x00, 0x00, 0x00, 0x00, 0x00, 0x00, 0x00,
  0x00, 0x00, 0x00, 0x00, 0x00, 0x00, 0x00, 0x00, 0x00, 0x00, 0x00, 0x00,
  0x00, 0x00, 0x00, 0x00, 0x00, 0x00, 0x00, 0x00, 0x00, 0x00, 0x00, 0x00,
  0x00, 0x00, 0x00, 0x00, 0x00, 0x00, 0x00, 0x00, 0x00, 0x00, 0x00, 0x00,
  0x00, 0x00, 0x00, 0x00, 0x00, 0x00, 0x00, 0x00, 0x00, 0x00, 0x00, 0x00,
  0x00, 0x00, 0x00, 0x00, 0x00, 0x00, 0x00, 0x00, 0x00, 0x00, 0x00, 0x00,
  0x00, 0x00, 0x00, 0x00, 0x00, 0x00, 0x00, 0x00, 0x00, 0x00, 0x00, 0x00,
  0x00, 0x00, 0x00, 0x00, 0x00, 0x00, 0x00, 0x00, 0x00, 0x00, 0x00, 0x00,
  0x00, 0x00, 0x00, 0x00, 0x00, 0x00, 0x00, 0x00, 0x00, 0x00, 0x00, 0x00,
  0x00, 0x00, 0x00, 0x00, 0x00, 0x00, 0x00, 0x00, 0x00, 0x00, 0x00, 0x00,
  0x00, 0x00, 0x00, 0x00, 0x00, 0x00, 0x00, 0x00, 0x00, 0x00, 0x00, 0x00,
  0x00, 0x00, 0x00, 0x00, 0x00, 0x00, 0x00, 0x00, 0x00, 0x00, 0x00, 0x00,
  0x00, 0x00, 0x00, 0x00, 0x00, 0x00, 0x00, 0x00, 0x00, 0x00, 0x00, 0x00,
  0x00, 0x00, 0x00, 0x00, 0x00, 0x00, 0x00, 0x00, 0x00, 0x00, 0x00, 0x00,
  0x00, 0x00, 0x00, 0x00, 0x00, 0x00, 0x00, 0x00, 0x00, 0x00, 0x00, 0x00,
  0x00, 0x00, 0x00, 0x00, 0x00, 0x00, 0x00, 0x00, 0x00, 0x00, 0x00, 0x00,
  0x00, 0x00, 0x00, 0x00, 0x00, 0x00, 0x00, 0x00, 0x00, 0x00, 0x00, 0x00,
  0x00, 0x00, 0x00, 0x00, 0x00, 0x00, 0x00, 0x00, 0x00, 0x00, 0x00, 0x00,
  0x00, 0x00, 0x00, 0x00, 0x00, 0x00, 0x00, 0x00, 0x00, 0x00, 0x00, 0x00,
  0x00, 0x00, 0x00, 0x00, 0x00, 0x00, 0x00, 0x00, 0x00, 0x00, 0x00, 0x00,
  0x00, 0x00, 0x00, 0x00, 0x00, 0x00, 0x00, 0x00, 0x00, 0x00, 0x00, 0x00,
  0x00, 0x00, 0x00, 0x00, 0x00, 0x00, 0x00, 0x00, 0x00, 0x00, 0x00, 0x00,
  0x00, 0x00, 0x00, 0x00, 0x00, 0x00, 0x00, 0x00, 0x00, 0x00, 0x00, 0x00,
  0x00, 0x00, 0x00, 0x00, 0x00, 0x00, 0x00, 0x00, 0x00, 0x00, 0x00, 0x00,
  0x00, 0x00, 0x00, 0x00, 0x00, 0x00, 0x00, 0x00, 0x00, 0x00, 0x00, 0x00,
  0x00, 0x00, 0x00, 0x00, 0x00, 0x00, 0x00, 0x00, 0x00, 0x00, 0x00, 0x00,
  0x00, 0x00, 0x00, 0x00, 0x00, 0x00, 0x00, 0x00, 0x00, 0x00, 0x00, 0x00,
  0x00, 0x00, 0x00, 0x00, 0x00, 0x00, 0x00, 0x00, 0x00, 0x00, 0x00, 0x00,
  0x00, 0x00, 0x00, 0x00, 0x00, 0x00, 0x00, 0x00, 0x00, 0x00, 0x00, 0x00,
  0x00, 0x00, 0x00, 0x00, 0x00, 0x00, 0x00, 0x00, 0x00, 0x00, 0x00, 0x00,
  0x00, 0x00, 0x00, 0x00, 0x00, 0x00, 0x00, 0x00, 0x00, 0x00, 0x00, 0x00,
  0x00, 0x00, 0x00, 0x00, 0x00, 0x00, 0x00, 0x00, 0x00, 0x00, 0x00, 0x00,
  0x00, 0x00, 0x00, 0x00, 0x00, 0x00, 0x00, 0x00, 0x00, 0x00, 0x00, 0x00,
  0x00, 0x00, 0x00, 0x00, 0x00, 0x00, 0x00, 0x00, 0x00, 0x00, 0x00, 0x00,
  0x00, 0x00, 0x00, 0x00, 0x00, 0x00, 0x00, 0x00, 0x00, 0x00, 0x00, 0x00,
  0x00, 0x00, 0x00, 0x00, 0x00, 0x00, 0x00, 0x00, 0x00, 0x00, 0x00, 0x00,
  0x00, 0x00, 0x00, 0x00, 0x00, 0x00, 0x00, 0x00, 0x00, 0x00, 0x00, 0x00,
  0x00, 0x00, 0x00, 0x00, 0x00, 0x00, 0x00, 0x00, 0x00, 0x00, 0x00, 0x00,
  0x00, 0x00, 0x00, 0x00, 0x00, 0x00, 0x00, 0x00, 0x00, 0x00, 0x00, 0x00,
  0x00, 0x00, 0x00, 0x00, 0x00, 0x00, 0x00, 0x00, 0x00, 0x00, 0x00, 0x00,
  0x00, 0x00, 0x00, 0x00, 0x00, 0x00, 0x00, 0x00, 0x00, 0x00, 0x00, 0x00,
  0x00, 0x00, 0x00, 0x00, 0x00, 0x00, 0x00, 0x00, 0x00, 0x00, 0x00, 0x00,
  0x00, 0x00, 0x00, 0x00, 0x00, 0x00, 0x00, 0x00, 0x00, 0x00, 0x00, 0x00,
  0x00, 0x00, 0x00, 0x00, 0x00, 0x00, 0x00, 0x00, 0x00, 0x00, 0x00, 0x00,
  0x00, 0x00, 0x00, 0x00, 0x00, 0x00, 0x00, 0x00, 0x00, 0x00, 0x00, 0x00,
  0x00, 0x00, 0x00, 0x00, 0x00, 0x00, 0x00, 0x00, 0x00, 0x00, 0x00, 0x00,
  0x00, 0x00, 0x00, 0x00, 0x00, 0x00, 0x00, 0x00, 0x00, 0x00, 0x00, 0x00,
  0x00, 0x00, 0x00, 0x00, 0x00, 0x00, 0x00, 0x00, 0x00, 0x00, 0x00, 0x00,
  0x00, 0x00, 0x00, 0x00, 0x00, 0x00, 0x00, 0x00, 0x00, 0x00, 0x00, 0x00,
  0x00, 0x00, 0x00, 0x00, 0x00, 0x00, 0x00, 0x00, 0x00, 0x00, 0x00, 0x00,
  0x00, 0x00, 0x00, 0x00, 0x00, 0x00, 0x00, 0x00, 0x00, 0x00, 0x00, 0x00,
  0x00, 0x00, 0x00, 0x00, 0x00, 0x00, 0x00, 0x00, 0x00, 0x00, 0x00, 0x00,
  0x00, 0x00, 0x00, 0x00, 0x00, 0x00, 0x00, 0x00, 0x00, 0x00, 0x00, 0x00,
  0x00, 0x00, 0x00, 0x00, 0x00, 0x00, 0x00, 0x00, 0x00, 0x00, 0x00, 0x00,
  0x00, 0x00, 0x00, 0x00, 0x00, 0x00, 0x00, 0x00, 0x00, 0x00, 0x00, 0x00,
  0x00, 0x00, 0x00, 0x00, 0x00, 0x00, 0x00, 0x00, 0x00, 0x00, 0x00, 0x00,
  0x00, 0x00, 0x00, 0x00, 0x00, 0x00, 0x00, 0x00, 0x00, 0x00, 0x00, 0x00,
  0x00, 0x00, 0x00, 0x00, 0x00, 0x00, 0x00, 0x00, 0x00, 0x00, 0x00, 0x00,
  0x00, 0x00, 0x00, 0x00, 0x00, 0x00, 0x00, 0x00, 0x00, 0x00, 0x00, 0x00,
  0x00, 0x00, 0x00, 0x00, 0x00, 0x00, 0x00, 0x00, 0x00, 0x00, 0x00, 0x00,
  0x00, 0x00, 0x00, 0x00, 0x00, 0x00, 0x00, 0x00, 0x00, 0x00, 0x00, 0x00,
  0x00, 0x00, 0x00, 0x00, 0x00, 0x00, 0x00, 0x00, 0x00, 0x00, 0x00, 0x00,
  0x00, 0x00, 0x00, 0x00, 0x00, 0x00, 0x00, 0x00, 0x00, 0x00, 0x00, 0x00,
  0x00, 0x00, 0x00, 0x00, 0x00, 0x00, 0x00, 0x00, 0x00, 0x00, 0x00, 0x00,
  0x00, 0x00, 0x00, 0x00, 0x00, 0x00, 0x00, 0x00, 0x00, 0x00, 0x00, 0x00,
  0x00, 0x00, 0x00, 0x00, 0x00, 0x00, 0x00, 0x00, 0x00, 0x00, 0x00, 0x00,
  0x00, 0x00, 0x00, 0x00, 0x00, 0x00, 0x00, 0x00, 0x00, 0x00, 0x00, 0x00,
  0x00, 0x00, 0x00, 0x00, 0x00, 0x00, 0x00, 0x00, 0x00, 0x00, 0x00, 0x00,
  0x00, 0x00, 0x00, 0x00, 0x00, 0x00, 0x00, 0x00, 0x00, 0x00, 0x00, 0x00,
  0x00, 0x00, 0x00, 0x00, 0x00, 0x00, 0x00, 0x00, 0x00, 0x00, 0x00, 0x00,
  0x00, 0x00, 0x00, 0x00, 0x00, 0x00, 0x00, 0x00, 0x00, 0x00, 0x00, 0x00,
  0x00, 0x00, 0x00, 0x00, 0x00, 0x00, 0x00, 0x00, 0x00, 0x00, 0x00, 0x00,
  0x00, 0x00, 0x00, 0x00, 0x00, 0x00, 0x00, 0x00, 0x00, 0x00, 0x00, 0x00,
  0x00, 0x00, 0x00, 0x00, 0x00, 0x00, 0x00, 0x00, 0x00, 0x00, 0x00, 0x00,
  0x00, 0x00, 0x00, 0x00, 0x00, 0x00, 0x00, 0x00, 0x00, 0x00, 0x00, 0x00,
  0x00, 0x00, 0x00, 0x00, 0x00, 0x00, 0x00, 0x00, 0x00, 0x00, 0x00, 0x00,
  0x00, 0x00, 0x00, 0x00, 0x00, 0x00, 0x00, 0x00, 0x00, 0x00, 0x00, 0x00,
  0x00, 0x00, 0x00, 0x00, 0x00, 0x00, 0x00, 0x00, 0x00, 0x00, 0x00, 0x00,
  0x00, 0x00, 0x00, 0x00, 0x00, 0x00, 0x00, 0x00, 0x00, 0x00, 0x00, 0x00,
  0x00, 0x00, 0x00, 0x00, 0x00, 0x00, 0x00, 0x00, 0x00, 0x00, 0x00, 0x00,
  0x00, 0x00, 0x00, 0x00, 0x00, 0x00, 0x00, 0x00, 0x00, 0x00, 0x00, 0x00,
  0x00, 0x00, 0x00, 0x00, 0x00, 0x00, 0x00, 0x00, 0x00, 0x00, 0x00, 0x00,
  0x00, 0x00, 0x00, 0x00, 0x00, 0x00, 0x00, 0x00, 0x00, 0x00, 0x00, 0x00,
  0x00, 0x00, 0x00, 0x00, 0x00, 0x00, 0x00, 0x00, 0x00, 0x00, 0x00, 0x00,
  0x00, 0x00, 0x00, 0x00, 0x00, 0x00, 0x00, 0x00, 0x00, 0x00, 0x00, 0x00,
  0x00, 0x00, 0x00, 0x00, 0x00, 0x00, 0x00, 0x00, 0x00, 0x00, 0x00, 0x00,
  0x00, 0x00, 0x00, 0x00, 0x00, 0x00, 0x00, 0x00, 0x00, 0x00, 0x00, 0x00,
  0x00, 0x00, 0x00, 0x00, 0x00, 0x00, 0x00, 0x00, 0x00, 0x00, 0x00, 0x00,
  0x00, 0x00, 0x00, 0x00, 0x00, 0x00, 0x00, 0x00, 0x00, 0x00, 0x00, 0x00,
  0x00, 0x00, 0x00, 0x00, 0x00, 0x00, 0x00, 0x00, 0x00, 0x00, 0x00, 0x00,
  0x00, 0x00, 0x00, 0x00, 0xc8, 0x00, 0x00, 0x00, 0xa0, 0x2e, 0xbd, 0x3a,
  0xc6, 0x2b, 0x90, 0x3a, 0x5c, 0x96, 0xd2, 0x3a, 0x67, 0x32, 0xd2, 0x3a,
  0xc3, 0x47, 0xd3, 0x3a, 0x28, 0x63, 0xd5, 0x3a, 0x50, 0x34, 0xb8, 0x3a,
  0x94, 0x44, 0x9c, 0x3a, 0xa6, 0x0d, 0x87, 0x3a, 0x92, 0x64, 0xcf, 0x3a,
  0x69, 0x06, 0xc4, 0x3a, 0x5a, 0xed, 0x60, 0x3a, 0xa5, 0x72, 0x99, 0x3a,
  0x93, 0x37, 0xb8, 0x3a, 0x1c, 0x63, 0xd5, 0x3a, 0x04, 0xf7, 0xa8, 0x3a,
  0x69, 0xc9, 0xd3, 0x3a, 0x41, 0x6d, 0xcf, 0x3a, 0xa0, 0x45, 0xc8, 0x3a,
  0xee, 0x15, 0xc1, 0x3a, 0x68, 0x88, 0xa4, 0x3a, 0x53, 0x3a, 0xa1, 0x3a,
  0xf1, 0x25, 0xcb, 0x3a, 0x5f, 0xde, 0xcb, 0x3a, 0x1a, 0xf3, 0x9e, 0x3a,
  0x0c, 0xbc, 0xb2, 0x3a, 0x04, 0x18, 0xdd, 0x3a, 0xa1, 0x4f, 0xad, 0x3a,
  0x49, 0x61, 0xde, 0x3a, 0xee, 0x93, 0x9d, 0x3a, 0x89, 0xee, 0xd4, 0x3a,
  0xda, 0x48, 0xb6, 0x3a, 0x2a, 0x44, 0xcf, 0x3a, 0x09, 0xe7, 0xb5, 0x3a,
  0x5f, 0x25, 0xa1, 0x3a, 0x6c, 0x37, 0xd3, 0x3a, 0x30, 0x94, 0xcf, 0x3a,
  0x2c, 0x0c, 0xb1, 0x3a, 0x6d, 0xba, 0xb7, 0x3a, 0x54, 0x67, 0xb9, 0x3a,
  0xe0, 0xbb, 0x8a, 0x3a, 0x75, 0xde, 0xde, 0x3a, 0xa1, 0x7e, 0xa0, 0x3a,
  0xd7, 0x79, 0x9f, 0x3a, 0x20, 0x95, 0xcc, 0x3a, 0xfd, 0x27, 0xcf, 0x3a,
  0x6f, 0x00, 0xb1, 0x3a, 0xd7, 0x84, 0x84, 0x3a, 0xcd, 0x19, 0xa6, 0x3a,
  0x5e, 0xde, 0x92, 0x3a, 0xae, 0x18, 0x8d, 0x3a, 0x2a, 0x88, 0xa0, 0x3a,
  0x45, 0x8e, 0xb0, 0x3a, 0xb3, 0x63, 0xc0, 0x3a, 0x93, 0xfa, 0xb5, 0x3a,
  0x63, 0x3c, 0x9b, 0x3a, 0x92, 0xbc, 0x8c, 0x3a, 0x74, 0x30, 0xc4, 0x3a,
  0x0a, 0x5a, 0xc3, 0x3a, 0xdd, 0x8c, 0xd2, 0x3a, 0xa0, 0x6d, 0xbb, 0x3a,
  0x72, 0xc0, 0xa5, 0x3a, 0x36, 0xcd, 0x8e, 0x3a, 0xd7, 0xb6, 0xdf, 0x3a,
  0xc7, 0xc6, 0xd2, 0x3a, 0xbd, 0x9f, 0x9f, 0x3a, 0x93, 0x80, 0xd8, 0x3a,
  0xfc, 0x4e, 0xe1, 0x3a, 0x9d, 0x4a, 0x69, 0x3a, 0x52, 0x85, 0x79, 0x3a,
  0x2c, 0x54, 0xaa, 0x3a, 0x57, 0x76, 0xd1, 0x3a, 0x6a, 0xad, 0xb2, 0x3a,
  0xa9, 0x8e, 0xb2, 0x3a, 0x10, 0xa5, 0xaa, 0x3a, 0x0c, 0xc5, 0xe0, 0x3a,
  0xab, 0x33, 0xe0, 0x3a, 0xdc, 0x63, 0xbd, 0x3a, 0x00, 0x20, 0x97, 0x3a,
  0xad, 0x0f, 0x31, 0x3a, 0xc6, 0x56, 0xa9, 0x3a, 0xa0, 0x52, 0xce, 0x3a,
  0x4d, 0x01, 0xcd, 0x3a, 0x77, 0xb6, 0xb6, 0x3a, 0x93, 0x1d, 0xd3, 0x3a,
  0x90, 0x63, 0xaf, 0x3a, 0xc7, 0xf2, 0xa3, 0x3a, 0x5f, 0x94, 0xb9, 0x3a,
  0x51, 0x13, 0xb7, 0x3a, 0x7e, 0x42, 0xcc, 0x3a, 0x2b, 0xef, 0xdf, 0x3a,
  0x13, 0xf3, 0xc8, 0x3a, 0x0c, 0x5c, 0xa3, 0x3a, 0x5e, 0x3c, 0xcc, 0x3a,
  0x56, 0x1b, 0xba, 0x3a, 0x00, 0x55, 0xbb, 0x3a, 0x80, 0xd3, 0xd2, 0x3a,
  0x4c, 0xdf, 0xb8, 0x3a, 0xb4, 0xc7, 0x8b, 0x3a, 0x4b, 0x3c, 0x96, 0x3a,
  0xad, 0x34, 0xd0, 0x3a, 0x90, 0xfa, 0xbb, 0x3a, 0x1f, 0x0a, 0xd4, 0x3a,
  0x63, 0x34, 0xa6, 0x3a, 0x41, 0x46, 0x81, 0x3a, 0x7f, 0xc5, 0x8d, 0x3a,
  0x29, 0x5e, 0xb4, 0x3a, 0x00, 0x32, 0xb1, 0x3a, 0x46, 0x75, 0xd7, 0x3a,
  0xb3, 0x50, 0xc4, 0x3a, 0x15, 0xe6, 0xaf, 0x3a, 0x60, 0xf5, 0xcf, 0x3a,
  0x7c, 0xc8, 0xde, 0x3a, 0xec, 0x9e, 0x7d, 0x3a, 0x65, 0x7c, 0xb3, 0x3a,
  0x9a, 0x6b, 0xe1, 0x3a, 0xcd, 0x9e, 0xc9, 0x3a, 0x6a, 0xf0, 0xd5, 0x3a,
  0x67, 0x66, 0x71, 0x3a, 0x1d, 0x2b, 0xd9, 0x3a, 0x8e, 0x32, 0xbc, 0x3a,
  0x87, 0xa8, 0xbc, 0x3a, 0x64, 0xae, 0xb1, 0x3a, 0x4d, 0x60, 0x7e, 0x3a,
  0xdf, 0x69, 0xd1, 0x3a, 0x84, 0x39, 0x9f, 0x3a, 0xc1, 0x2d, 0xda, 0x3a,
  0xf2, 0x21, 0xc1, 0x3a, 0x07, 0x3b, 0xc4, 0x3a, 0xec, 0xe9, 0xa8, 0x3a,
  0x9f, 0xf9, 0xc8, 0x3a, 0xad, 0x76, 0xce, 0x3a, 0x15, 0xb2, 0xbd, 0x3a,
  0x7e, 0xfc, 0xcb, 0x3a, 0x31, 0x06, 0xdb, 0x3a, 0x85, 0x14, 0x9d, 0x3a,
  0xf9, 0x9f, 0xdf, 0x3a, 0x11, 0x9f, 0xa7, 0x3a, 0x15, 0xa3, 0xa7, 0x3a,
  0x96, 0xb6, 0xb9, 0x3a, 0xe8, 0x72, 0xbd, 0x3a, 0x91, 0x0c, 0xd4, 0x3a,
  0xaf, 0x16, 0xba, 0x3a, 0x0d, 0x45, 0x8a, 0x3a, 0x6e, 0x9c, 0xc7, 0x3a,
  0x70, 0x44, 0xc1, 0x3a, 0xc6, 0x97, 0xb4, 0x3a, 0x8b, 0x58, 0xc7, 0x3a,
  0x5c, 0xeb, 0xb0, 0x3a, 0xaa, 0x66, 0xa6, 0x3a, 0x37, 0x1f, 0x66, 0x3a,
  0x9b, 0xb3, 0xae, 0x3a, 0xca, 0x06, 0xd0, 0x3a, 0x08, 0xa1, 0x66, 0x3a,
  0x7e, 0xd8, 0xb7, 0x3a, 0x6b, 0x6a, 0xd4, 0x3a, 0xf1, 0x98, 0xd3, 0x3a,
  0x8a, 0x2f, 0xc8, 0x3a, 0x0f, 0xe0, 0xd3, 0x3a, 0xad, 0xd0, 0xae, 0x3a,
  0xc5, 0xf4, 0xba, 0x3a, 0x4d, 0x09, 0xcf, 0x3a, 0xca, 0x08, 0x9e, 0x3a,
  0xc2, 0x4a, 0xc9, 0x3a, 0x8b, 0x52, 0xc6, 0x3a, 0x53, 0xeb, 0xd5, 0x3a,
  0x05, 0x06, 0xd2, 0x3a, 0xc6, 0x3b, 0xd3, 0x3a, 0x7c, 0x67, 0xdd, 0x3a,
  0x81, 0xcd, 0x9b, 0x3a, 0xb0, 0xb5, 0xd4, 0x3a, 0xa8, 0x75, 0xe0, 0x3a,
  0x59, 0x4b, 0xac, 0x3a, 0xd5, 0xbe, 0xd9, 0x3a, 0x3e, 0xdf, 0xdb, 0x3a,
  0x1a, 0x28, 0xc2, 0x3a, 0x29, 0x4a, 0x7a, 0x3a, 0x8b, 0x89, 0xd2, 0x3a,
  0x0c, 0x7f, 0xae, 0x3a, 0x88, 0x0e, 0xb3, 0x3a, 0x8f, 0x66, 0xce, 0x3a,
  0x90, 0x6f, 0xae, 0x3a, 0x5e, 0x58, 0xb7, 0x3a, 0x43, 0xd7, 0xb4, 0x3a,
  0x9a, 0xfb, 0xcb, 0x3a, 0xb3, 0x73, 0xc5, 0x3a, 0x99, 0x82, 0x9f, 0x3a,
  0x91, 0xe3, 0xcc, 0x3a, 0x8b, 0x31, 0xd0, 0x3a, 0xa5, 0x6e, 0xdb, 0x3a,
  0x73, 0x1d, 0x76, 0x3a, 0x71, 0x89, 0xdb, 0x3a, 0xc6, 0x92, 0xbe, 0x3a,
  0x8e, 0x6c, 0x9d, 0x3a, 0xbf, 0x9d, 0xd5, 0x3a, 0xc2, 0x84, 0xda, 0x3a,
  0xaa, 0xca, 0xcb, 0x3a, 0x5a, 0x0c, 0xb8, 0x3a, 0xa9, 0x61, 0xaa, 0x3a,
  0x21, 0x48, 0xb6, 0x3a, 0x11, 0x00, 0x00, 0x00, 0x74, 0x66, 0x6c, 0x2e,
  0x70, 0x73, 0x65, 0x75, 0x64, 0x6f, 0x5f, 0x71, 0x63, 0x6f, 0x6e, 0x73,
  0x74, 0x00, 0x00, 0x00, 0x02, 0x00, 0x00, 0x00, 0xc8, 0x00, 0x00, 0x00,
  0x0a, 0x00, 0x00, 0x00, 0xc6, 0xff, 0xff, 0xff, 0x00, 0x00, 0x00, 0x01,
  0x10, 0x00, 0x00, 0x00, 0x10, 0x00, 0x00, 0x00, 0x03, 0x00, 0x00, 0x00,
  0x1c, 0x00, 0x00, 0x00, 0x50, 0xff, 0xff, 0xff, 0x0f, 0x00, 0x00, 0x00,
  0x61, 0x72, 0x69, 0x74, 0x68, 0x2e, 0x63, 0x6f, 0x6e, 0x73, 0x74, 0x61,
  0x6e, 0x74, 0x31, 0x00, 0x01, 0x00, 0x00, 0x00, 0xc8, 0x00, 0x00, 0x00,
  0x00, 0x00, 0x16, 0x00, 0x18, 0x00, 0x14, 0x00, 0x00, 0x00, 0x10, 0x00,
  0x0c, 0x00, 0x08, 0x00, 0x00, 0x00, 0x00, 0x00, 0x00, 0x00, 0x07, 0x00,
  0x16, 0x00, 0x00, 0x00, 0x00, 0x00, 0x00, 0x01, 0x10, 0x00, 0x00, 0x00,
  0x10, 0x00, 0x00, 0x00, 0x02, 0x00, 0x00, 0x00, 0x1c, 0x00, 0x00, 0x00,
  0xa0, 0xff, 0xff, 0xff, 0x0e, 0x00, 0x00, 0x00, 0x61, 0x72, 0x69, 0x74,
  0x68, 0x2e, 0x63, 0x6f, 0x6e, 0x73, 0x74, 0x61, 0x6e, 0x74, 0x00, 0x00,
  0x01, 0x00, 0x00, 0x00, 0x0a, 0x00, 0x00, 0x00, 0x00, 0x00, 0x16, 0x00,
  0x1c, 0x00, 0x18, 0x00, 0x00, 0x00, 0x14, 0x00, 0x10, 0x00, 0x0c, 0x00,
  0x00, 0x00, 0x00, 0x00, 0x08, 0x00, 0x07, 0x00, 0x16, 0x00, 0x00, 0x00,
  0x00, 0x00, 0x00, 0x01, 0x14, 0x00, 0x00, 0x00, 0x20, 0x00, 0x00, 0x00,
  0x20, 0x00, 0x00, 0x00, 0x01, 0x00, 0x00, 0x00, 0x3c, 0x00, 0x00, 0x00,
  0x02, 0x00, 0x00, 0x00, 0xff, 0xff, 0xff, 0xff, 0xcd, 0x00, 0x00, 0x00,
  0x04, 0x00, 0x04, 0x00, 0x04, 0x00, 0x00, 0x00, 0x1e, 0x00, 0x00, 0x00,
  0x73, 0x65, 0x72, 0x76, 0x69, 0x6e, 0x67, 0x5f, 0x64, 0x65, 0x66, 0x61,
  0x75, 0x6c, 0x74, 0x5f, 0x6b, 0x65, 0x72, 0x61, 0x73, 0x5f, 0x74, 0x65,
  0x6e, 0x73, 0x6f, 0x72, 0x3a, 0x30, 0x00, 0x00, 0x02, 0x00, 0x00, 0x00,
  0x01, 0x00, 0x00, 0x00, 0xcd, 0x00, 0x00, 0x00, 0x02, 0x00, 0x00, 0x00,
  0x2c, 0x00, 0x00, 0x00, 0x10, 0x00, 0x00, 0x00, 0x0c, 0x00, 0x0c, 0x00,
  0x0b, 0x00, 0x00, 0x00, 0x00, 0x00, 0x04, 0x00, 0x0c, 0x00, 0x00, 0x00,
  0x19, 0x00, 0x00, 0x00, 0x00, 0x00, 0x00, 0x19, 0x0c, 0x00, 0x10, 0x00,
  0x0f, 0x00, 0x00, 0x00, 0x08, 0x00, 0x04, 0x00, 0x0c, 0x00, 0x00, 0x00,
  0x09, 0x00, 0x00, 0x00, 0x0c, 0x00, 0x00, 0x00, 0x00, 0x00, 0x00, 0x09
};
unsigned int chatbot_model_quantized_tflite_len = 9192;
